#version: 0.2
ä º
ã Ģ
ä ¸
ç ļ
çļ Ħ
äº º
æ Ŀ
æ ľ
ä »
å Ĳ
å ħ
å ®
å ı
å į
ãĢ Ĥ
æĿ ĥ
å Ĭ
ç ¬
æ ī
ç¬ ¬
è ´
æ Ī
ç Ķ
å® ļ
å ½
æĿ ¡
æľ ī
ãĢ ģ
č Ċ
å Ī
ç Ļ
è ®
Ġ ãĢ
ãĢ ĳ
ĠãĢ Ĳ
ä ¹
æ ³
åį ģ
æ³ ķ
ä ½
ä¸ Ģ
ç »
è ¡
çĻ ¾
è Ģ
å½ ĵ
æ Ĭ
è ¯
åĲ Ī
èĢ ħ
å º
åĬ ¡
æĪ ĸ
é Ļ
åĲ Į
æĪĸ èĢħ
æī ¿
ä¸ į
å Ľ
å ¤
è¡ Į
è ¿
ç ī
åº Ķ
ä» ¥
äº ĭ
è §
å Ģ
çī ©
æ ĸ
å ¾
æ Ĺ
ä ¿
æ ĭ
ä ¾
ç º
çĶ ¨
å ľ
åºĶ å½ĵ
è µ
åĢ º
åĲĪ åĲĮ
çº ¦
æ Ķ
é Ģ
äº §
ç Ľ
ç §
ä¿ Ŀ
åı ¯
ä» »
è´ £
å ±
å ¯
ç Ĳ
æĭ ħ
çĲ Ĩ
ä¸ ī
åĪ ©
è§ Ħ
æ į
æ ĺ
ä¸ º
æ °
å ĩ
è´£ ä»»
çº¦ å®ļ
æ ķ
æĪ Ĳ
äº Į
åħ ¶
å Ĵ
æ° ĳ
å¯ ¹
è§Ħ å®ļ
åı¯ ä»¥
åĴ Į
ç «
ç§ Ł
è ĩ
æľ Ł
å ¼
æĹ ¶
å ģ
åı Ĺ
å Ĩ
æ ł
ç¬¬ ä¸Ģ
æĸ ¹
åĢº åĬ¡
äºº çļĦ
äº Ķ
ç ®
ç ħ
çħ §
åĩ º
åħ ³
å §
å¾ ĭ
é ĩ
æ³ķ å¾ĭ
æī¿ æĭħ
ç Ń
åĽ Ľ
ä¹ ī
ä½ ¿
åħ Ń
æį Ł
æ ¬
éĻ ¤
æ Į
åħ «
ä¹ Ŀ
ä¸ ĥ
åģ ¿
è ½
å Ń
æ¬ ¾
å® ³
å¾ Ĺ
åĬ ¨
åľ °
èĩ ª
æ ı
ä¾ Ŀ
ä» ĸ
ä» ĺ
ç® ¡
æ ±
é ģ
å ¹
è¯ ·
éĻ Ĳ
æĿĥ äºº
æī ĺ
ä ¼
æ Ń
å ·
è® ¾
è¡Į ä¸º
æ°ĳ äºĭ
æ± Ĥ
ç« ĭ
åĪ Ĩ
ç» ı
æĺ ¯
¦ ģ
å½ĵ äºĭ
ç¬¬ ä¸ī
çĶ Ł
ä¹ī åĬ¡
¥ è¡Į
å± ¥è¡Į
å Į
åı Ĭ
æĿĥ åĪ©
æĶ ¶
åľ ¨
ä¸ ļ
æķ Ī
å½ĵäºĭ äºº
çŃ ī
é Ľ
è ĥ
è¯ ģ
æ Ħ
æı Ĳ
æī Ģ
å¤ ±
åį ĥ
ç¬¬ä¸Ģ åįĥ
æĮ ī
ä¸ »
è´ ¢
è´¢ äº§
é Ĺ
è ¦ģ
è´ ¨
æ ŀ
çĶ ±
å§ Ķ
å °
å ĳ
ä¸ İ
Ł ¥
åĬ Ľ
åĽ ł
æĬ ¤
è½ ¬
è¯· æ±Ĥ
åı ĳ
ä¾ µ
èĥ ½
æĦ ı
æľ ª
åħ »
å¤ ĸ
ä½¿ çĶ¨
æĮī çħ§
åĲ İ
è® °
æľŁ éĻĲ
æ Ģ
æĸ ½
ä½ ľ
å® ŀ
ç ¡
æľ º
ä½ Ĩ
æ³ķ äºº
ä½Ĩ æĺ¯
ä» £
éĹ ´
æł ĩ
å »
åħ ±
è® ©
å§Ķ æīĺ
¢ «
å ī
è ¢«
éĽ ¶
æĬ ¼
äº ¤
ç§Ł äºº
ç¡ ®
å¼ ı
èµ Ķ
åĨ ħ
» è®°
ç Ł¥
çĻ »è®°
æ İ
åı ĸ
è¯ ¥
ç» §
æĶ ¯
çĽ ¸
é Ķ
æ ĥ
çĽ Ĭ
åĲ ĳ
æĬ µ
ä¸į å¾Ĺ
æĺ İ
åĬ¨ äº§
åį ĸ
è¿ Ĳ
åħ¶ ä»ĸ
é ¢
åĮ ħ
éģ Ĺ
èµĶ åģ¿
æįŁ å®³
æľ ¯
éĢ ł
å· ¥
å» º
æĿĥ çļĦ
æĬ Ģ
æĹ ł
ä½ ĵ
æĬĢ æľ¯
é ĥ
æ ¯
è§ £
æĶ¯ ä»ĺ
èµ ģ
ç§Ł èµģ
æĬµ æĬ¼
æľī æĿĥ
è´ ¹
æĥ ħ
éĢł æĪĲ
éĥ ¨
äºº åºĶå½ĵ
ä¾ Ľ
³ »
ç ³»
å½ ¢
æľ ¬
ä¹ ĭ
äº İ
èµ Ħ
çļĦ çī©
äºĮ çĻ¾
éĢ ļ
è¿ Ŀ
è Ĳ
åĢºåĬ¡ äºº
ç»§ æī¿
æ ²
æľ į
åı ¦
éĢ Ĥ
åī į
è¿ ĩ
ä¾Ŀ æ³ķ
ä¹ °
è½¬ è®©
æľī åħ³
çĽ ĳ
çº¦å®ļ çļĦ
æľį åĬ¡
ä¸ Ń
æŃ ¢
å ©
ç¬¬ äºĶ
æ ģ
é Ŀ
ä» ·
æį ®
åħ³ ç³»
æŀ Ħ
å ĵ
åĽ ½
ä¿Ŀ ç®¡
ä¿Ŀ è¯ģ
å© ļ
ä¸Ģ åįģ
äºĮ åįģ
¡ æľī
åŃ ĺ
æłĩ çļĦçī©
æ² ¡æľī
è ¾
éĻ¤ å¤ĸ
å ¸
å¤ Ħ
åĲĪåĲĮ çļĦ
ç« ł
èĲ ¥
ç ¨
å± ŀ
å® ¶
å ¥
åĽĽ åįģ
ç®¡ çĲĨ
åĪ °
ç» Ħ
è§Ħå®ļ çļĦ
å İ
åĢº æĿĥ
åĢº æĿĥäºº
å¹ ¶
å¥ ³
ä¸ī æĿ¡
ä¹Ŀ åįģ
éĶ Ģ
åı¦ æľī
æī¿ ç§Łäºº
ç¬¬ä¸ī äºº
åı ĺ
ä¸Ģ æĿ¡
äºĮ æĿ¡
åŃ Ĳ
å¹ ´
ç¬¬äºĶ çĻ¾
ç¨ ĭ
åħ« æĿ¡
ä¸ī åįģ
åĽĽ æĿ¡
éĢĤ çĶ¨
ä¸ĥ æĿ¡
æľº æŀĦ
å ¦
ç ¤
ä¸ ª
ç» ĩ
äºĶ æĿ¡
åħŃ æĿ¡
åħŃ åįģ
ä¹Ŀ æĿ¡
ä»£ çĲĨ
ç»Ħ ç»ĩ
è§£ éĻ¤
ä¸Ģ æĸ¹
çĽĳ æĬ¤
ä¸ ĭ
ä¼ ļ
åĳ Ĭ
åħ« åįģ
ä¸ĥ åįģ
äºº åı¯ä»¥
åĪ ¶
äºĶ åįģ
ä¾Ŀ çħ§
äº¤ ä»ĺ
åİ Ł
é ¡
æĸ¹ å¼ı
éĩ ĳ
æ Ĵ
åį ı
ä¸į åĬ¨äº§
æįŁ å¤±
æģ ¯
æł ¼
é¢ Ŀ
ç¬¬ åĽĽ
åŃĲ å¥³
æĴ ¤
åħ ¬
ç¬¬ åħŃ
è¡ ¨
æĭħ ä¿Ŀ
åĲ į
æıĲ ä¾Ľ
æīĢ æľī
æĢ §
å»º è®¾
ç ½
è® ®
è® ¢
ä»ĸ äºº
ä¾µ æĿĥ
äºº æ°ĳ
æĹ ¥
ç¬¬ä¸Ģåįĥ éĽ¶
äº «
æ Ľ
ç¬¬ ä¸ĥ
ç¡® å®ļ
ç Ħ
ç Ī
è ģ
ç¬¬ åħ«
ç¬¬ ä¹Ŀ
èĩ ´
å¼ Ģ
ç¬¬ä¸Ģ çĻ¾
è®¾ ç«ĭ
ä¸ļ ä¸»
çĦ ¶
ç¬¬ äºĮçĻ¾
çĶ µ
æĥħ å½¢
ä¸Ģ çĻ¾
ç¬¬ä¸Ģåįĥ ä¸ĢçĻ¾
ç¬¬åħŃ çĻ¾
ç İ
ç¬¬ä¸ī çĻ¾
ç§Łèµģ çī©
åĽ½ å®¶
äº« æľī
éĥ¨ åĪĨ
ç¬¬ä¸ĥ çĻ¾
ç¬¬ä¹Ŀ çĻ¾
éĩ ĩ
ç¬¬åĽĽ çĻ¾
æĽ ´
ç¬¬åħ« çĻ¾
é ħ
çļĦ è§Ħå®ļ
æ¯ į
æĴ¤ éĶĢ
æ ¶
æ »
åį ķ
åĳ ĺ
éĢļ çŁ¥
çĪ ¶
ç ģ
åħ ¨
ä¿Ŀ æĬ¤
å° Ĩ
çī© ä¸ļ
åħ± æľī
é ļ
è´ §
éĻ ©
åĲĮ æĦı
æľŁ éĹ´
èĥ½ åĬĽ
åĩº åįĸ
ç»ı èĲ¥
æĶ¶ åħ»
æŀ ľ
è´¹ çĶ¨
ç ¼
ä» ¶
éĻ ¢
æķĪ åĬĽ
åĲĪ çĲĨ
è¿ ĺ
æĶ ¿
éģ ĵ
è®¢ ç«ĭ
è´ Ł
å®ŀ æĸ½
è¿Ŀ çº¦
æ ´
åħ Ī
åĪ Ĺ
æŃ »
åĵ ģ
çģ Ń
è ¶
è® ¸
æī¿ åĮħ
ä¿ ¡
æ°ĳäºĭ æ³ķå¾ĭ
åıĳ çĶŁ
äº ¡
æĬ ¥
ä¸į èĥ½
èĩª çĦ¶
æįŁå®³ çļĦ
éĿ ŀ
ç¤ º
ä¸ĭ åĪĹ
ä» ½
åľ Ł
èµ ł
åĨ ³
è Į
ä¸ Ĭ
ä¹ ¦
çĪ¶ æ¯į
çī©ä¸ļ æľįåĬ¡
åľŁ åľ°
èĮ ĥ
çļĦ æĿĥåĪ©
æ³ķ éĻ¢
è¡Į ä½¿
ä»¥ åıĬ
äººæ°ĳ æ³ķéĻ¢
è Ĥ
æ´ »
è®¸ åı¯
æ°ĳäºĭæ³ķå¾ĭ è¡Įä¸º
åį ł
å¤Ħ çĲĨ
åıĺ æĽ´
ä¸ª äºº
æŃ» äº¡
ç ĸ
ä¼ Ļ
åıĬ æĹ¶
å Ł
çĶ ³
éĩ į
å§Ķæīĺ äºº
ä¹° åıĹ
å¸ ¦
åĲĪ ä¼Ļ
åĽ ´
æķ °
ä¾µæĿĥ è´£ä»»
èĮĥ åĽ´
ä¸ ĵ
ç» Ļ
æ» ¡
æ³ķ å®ļ
èµ ·
éĩ ı
åĩº ç§Łäºº
çĶ³ è¯·
è¡ ¥
ä¸į æĺİ
åħ± åĲĮ
çİ °
æ ¸
è¿ Ķ
å¯¹ æĸ¹
åºĶå½ĵ æī¿æĭħ
åıĸ å¾Ĺ
æľ¬ æ³ķ
æ¸ ħ
é ľ
åĬ ŀ
ä½ į
ç» Ī
è¿ ŀ
çŃ ĳ
å ¿
ä» İ
ç» Ń
æĪĲ ç«ĭ
æĹ¶ éĹ´
ç ķ
çļĦ éĻ¤å¤ĸ
åħ ·
å® Į
åĢ Ł
åľ° ä½¿çĶ¨
çĽĳæĬ¤ äºº
è¿Ķ è¿ĺ
ç»Ī æŃ¢
è¿ŀ å¸¦
å ĺ
äºº æĪĸèĢħ
å½ Ĵ
è® ¡
å¤ §
åıĹ æīĺ
ç® Ĺ
æİ ¥
é¡ ¹
åĺ ±
º «
è º«
æł ¹
éģĹ åĺ±
è¾ ĵ
ç½ ®
åĩºåįĸ äºº
å Ĥ
çº¦å®ļ æĪĸèĢħ
åĨ µ
éĶ Ļ
èµĶåģ¿ è´£ä»»
å·¥ ä½ľ
è¯ ī
æĸ Ļ
åĪ© çĽĬ
æĪĲ å¹´
çķ Ļ
æł¹ æį®
æ µ
è¿ ½
éĽ Ĩ
å° ±
æ¶ Ī
åĢŁ æ¬¾
åĪ Ļ
èĩª å·
èĩªå· ±
å® ¹
åĩ Ĩ
çŁ¥ éģĵ
éģĹ äº§
ä»· æ¬¾
åįı è®®
èģ Į
åįł æľī
çŃĳ çī©
é ª
åĬ ©
è® ¤
ä½ ı
å± Ĭ
ä¾µ å®³
è¿Ĳ è¾ĵ
æĹł æķĪ
å»ºè®¾ çĶ¨
ä¿¡ æģ¯
äº Ī
å¤ «
è¡Į æĶ¿
è¡Įä¸º èĥ½åĬĽ
æ°ĳäºĭ è¡Įä¸ºèĥ½åĬĽ
ç¬¬ä¸Ģåįĥ äºĮçĻ¾
è¦ģ çº¦
è¦ģ æ±Ĥ
åĨħ å®¹
è¿Ĳ äºº
ç»§æī¿ äºº
å¦ »
å¿ ħ
å±Ĭ æ»¡
ª æĸ½
åį ±
æĿ¡ æ¬¾
å§ »
æİ ªæĸ½
éľ Ģ
çº¦å®ļ ä¸įæĺİ
æĮīçħ§ çº¦å®ļ
éĩĩ åıĸ
« ĺ
ç ¦
é «ĺ
å½ ±
è® ¼
çī© æĿĥ
æĮ ĩ
å·¥ ç¨ĭ
å½¢ å¼ı
è¿ĩ éĶĻ
å©ļ å§»
è¡¨ ç¤º
å¼Ģ åıĳ
éª Į
å»ºè®¾çĶ¨ åľ°ä½¿çĶ¨
è Ī
åı Ĥ
ç¬ ¦
æī §
æĿ¡ ä»¶
åĵ į
è¯ī è®¼
çº¦å®ļä¸įæĺİ ç¡®
ç¦ »
å½± åĵį
å® ī
åº ı
çĽ¸ åºĶ
æĥħ åĨµ
å±ŀ äºİ
éĽĨ ä½ĵ
å¤« å¦»
ç¬¦ åĲĪ
å ķ
è Ĭ
åı į
å½ ¹
çī© çļĦ
è½ ¦
éĻĲ åĪ¶
å½ĵäºĭäºº åı¦æľī
æľŁéĻĲ åĨħ
éĿ ¢
ä¹°åıĹ äºº
åķ Ĩ
èĬ Ĥ
ç ł
ä» ĵ
æ³ķ è§Ħ
åĮ »
ä¸» ä½ĵ
ä¸ĵ åĪ©
å¿ħ è¦ģ
ç¦» å©ļ
å ĸ
æĿĥ çĽĬ
å®ļ ä¹ī
äºĭ åĬ¡
æı ½
å· ²
å»º çŃĳçī©
æįŁå¤± çļĦ
åĬŀ çĲĨ
åĸ Ħ
æ £
ç ¥
è¯ º
æĪĸèĢħ åħ¶ä»ĸ
æī¿ æı½
æī¿ è¯º
æĪĲ æŀľ
æ°ĳäºĭ è´£ä»»
ä¾µ æĿĥäºº
åīį æ¬¾
ç¼ ĸ
è´Ł æĭħ
åŁ º
å Ŀ
ä» į
çī ¹
æĭ ¬
åı¯ä»¥ è¯·æ±Ĥ
ä¼ ĺ
èµł ä¸İ
å ĥ
å® ¢
ä¿ ®
ä¾Ŀ æį®
è´¨ éĩı
åĮħ æĭ¬
æ¯ ģ
éħ į
çķĻ ç½®
æī§ è¡Į
æ£ Ģ
åĥ ı
æĿ ĳ
æĬ Ĺ
ä¸į å±¥è¡Į
åĽ ŀ
æĶ ¾
æ³ķå¾ĭ è§Ħå®ļ
åıĬ åħ¶
æ²¡æľī çº¦å®ļæĪĸèĢħ
è¿Ŀçº¦ è´£ä»»
è¶ ħ
çĸ Ĺ
å®Į æĪĲ
èĪ ¬
å·² ç»ı
ä»¥ ä¸Ĭ
æľīæĿĥ è¯·æ±Ĥ
èĩ´ ä½¿
çģŃ å¤±
éľĢ è¦ģ
ä¼ĺ åħĪ
æ¯ģ æįŁ
æ²¡æľīçº¦å®ļæĪĸèĢħ çº¦å®ļä¸įæĺİç¡®
å¤ į
è§ Ĩ
å± ħ
ä¹ĭ ä¸Ģ
ç®¡çĲĨ äºº
åİŁ åĪĻ
ä¹¦ éĿ¢
éĻ Ħ
å¯ Ĩ
åĩº è´¨
æľŁéĻĲ å±Ĭæ»¡
æĢ Ŀ
ä¹ĭ æĹ¥
æľīåħ³ è§Ħå®ļ
çº¦å®ļçļĦ éĻ¤å¤ĸ
ä»£çĲĨ äºº
èĩªçĦ¶ äºº
æ´» åĬ¨
åĤ ¨
å®ļ ä½ľ
æľī ä¸ĭåĪĹ
æķ ħ
åı¯ä»¥ åĲĳ
æıĲ åŃĺ
ä¹° åįĸ
éħ ¬
æĬ¥ éħ¬
è¡ĮæĶ¿ æ³ķè§Ħ
æ³ķå¾ĭ åı¦æľī
è®¾ æĸ½
è¡Įä¸º äºº
è¯ģ æĺİ
æľª ç»ı
ä½ľ åĩº
æľº åħ³
éĢłæĪĲ ä»ĸäºº
è¿Ŀ åıį
æĥħå½¢ ä¹ĭä¸Ģ
èĤ ĸ
å ¢
è £
çļĦ æ°ĳäºĭæ³ķå¾ĭè¡Įä¸º
å® £
è¿ Ľ
éĢ ī
è´¢äº§ çļĦ
æĦı æĢĿ
çĽ¸ å¯¹
å¤Ħ åĪĨ
è§Ĩ ä¸º
èĤĸ åĥı
äºº åľ¨
æľ Ģ
åĲĪ æ³ķ
æī¿ è¿Ĳäºº
æĭ Ĵ
æĺ ĵ
æ°ĳäºĭ ä¸»ä½ĵ
çĶŁ æķĪ
ä¹īåĬ¡ çļĦ
æīĢ æľīæĿĥ
æ¸ħ åģ¿
ä¹ĭæĹ¥ èµ·
æľīä¸ĭåĪĹ æĥħå½¢ä¹ĭä¸Ģ
åı Į
ä¹ Ł
åº ¦
åĩ ı
æĹ¶ æķĪ
åĨ ľ
å§Ķ åĳĺ
ä¿Ŀç®¡ äºº
ä»½ é¢Ŀ
åıĹæīĺ äºº
åıĤ çħ§
å®£ åĳĬ
å§Ķåĳĺ ä¼ļ
äº ²
åĬ ł
ç» ´
åĬ¨ è½¦
æľº åĬ¨è½¦
åĨ³ å®ļ
è¡¥ åģ¿
æ¶Ī çģŃ
ç ´
è °
çļĦ åĲĪåĲĮ
ç» ĵ
æĬ ļ
å¾ ģ
åľ° å½¹
æŃ £
å±¥è¡Į åĢºåĬ¡
æĿĥåĪ© äºº
æľª æĪĲå¹´
å®ŀ çİ°
æĢ§ è´¨
åį± éĻ©
æ ®
ç ¦ģ
çļĦ è´¢äº§
ç» Ŀ
ä¸į ç¬¦åĲĪ
æĸ °
åħ¶ è§Ħå®ļ
ç¬¬äºĶçĻ¾ ä¸Ģåįģ
ä¾Ŀçħ§ åħ¶è§Ħå®ļ
åħ· æľī
å®ī åħ¨
çĽ¸åºĶ çļĦ
æĭĴ ç»Ŀ
åıĮ æĸ¹
æĬļ åħ»
æ Ł¥
æĸ ĩ
æĹ ħ
å¼ ĥ
éĹ ¨
é¢ Ĩ
è¿ŀå¸¦ è´£ä»»
å»ºè®¾çĶ¨åľ°ä½¿çĶ¨ æĿĥ
äº Ĵ
åĲ Ħ
åħ į
è´ ¦
çĽ ®
ç§ °
åĩº èµĦ
å§ ĵ
éĥ¨ éĹ¨
æłĩçļĦçī© çļĦ
å»ºè®¾ å·¥ç¨ĭ
éĩĩ çĶ¨
æī¿åĮħ ç»ıèĲ¥
åĮ» çĸĹ
æĹħ å®¢
¾ ä¼ļ
åħ ¥
æĪĸèĢħ åĬ¨äº§
å¤ ļ
åºĶ æĶ¶
çº ª
å¹ ³
åıĳ åĮħ
æĬµæĬ¼ æĿĥ
èĲ¥ åĪ©
ç¤ ¾ä¼ļ
ä¸įåĬ¨äº§ æĪĸèĢħåĬ¨äº§
è¯īè®¼ æĹ¶æķĪ
è¶ħ è¿ĩ
æĦıæĢĿ è¡¨ç¤º
åıĤçħ§ éĢĤçĶ¨
è´¦ æ¬¾
åºĶæĶ¶ è´¦æ¬¾
ä¸Ģ èĪ¬
åº Ń
è¡Į çºª
ç§Ł éĩĳ
çĶŁ æ´»
èµĦ æĸĻ
åįķ ä½į
æ£Ģ éªĮ
å®ļä½ľ äºº
éĢłæĪĲä»ĸäºº æįŁå®³çļĦ
ª ī
è ªī
é £
çļĦ äºº
çļĦ æ³ķå¾ĭ
ä½ ķ
ä¸į æī¿æĭħ
åľ º
äº§ çĶŁ
ç§ ģ
ä¿Ŀ çĲĨ
ä»» ä½ķ
åıĹ è®©
æĦ ¿
æ³ķäºº ç»Ħç»ĩ
ä¹ĭ éĹ´
ä¿Ŀè¯ģ äºº
é¡ º
éĿŀ æ³ķäººç»Ħç»ĩ
è®¡ ç®Ĺ
æİ¥ åıĹ
è° ĥ
ç¬¬ åįģ
åºĶå½ĵ åıĬæĹ¶
æķ ĳ
åıĹ åĪ°
å®¶ åºŃ
åĪ° æľŁ
è§£éĻ¤ åĲĪåĲĮ
ç½ ĳ
éĩį å¤§
å½Ĵ å±ŀ
è¿½ åģ¿
èģĮ è´£
äºĪ ä»¥
å½ĵäºĭäººåı¦æľī çº¦å®ļçļĦéĻ¤å¤ĸ
ä¾Ŀæį® æľ¬æ³ķ
çĽ¸å¯¹ äºº
ç¦ģ æŃ¢
é£ İ
æ Ĥ
ç ©
ç Ĥ
į åįĸ
çļĦ æķĪåĬĽ
èĢ Į
æĭ įåįĸ
ç§ »
è½ ½
åĪĨ åī
å½ĵäºĭäºº çº¦å®ļ
é¢ Ħ
äººåºĶå½ĵ æĮīçħ§
åįı åķĨ
ä»İ äºĭ
èĩªå·± çļĦ
æĮĩ å®ļ
ä»ĵ åĤ¨
ç¥ ¨
çĤ ¹
åĪĨåī ²
è į
ç¬¬ äºĮ
æ³ķ äººçļĦ
äºĭ é¡¹
çī© æĿĥçļĦ
çĶ¨ çĶµ
éĢ ģ
åľ° çĤ¹
è´¨ æĿĥäºº
èģ Ķ
è´§ çī©
åĲĪçĲĨ æľŁéĻĲåĨħ
æµ İ
çĽ® çļĦ
çļĦ ä¹īåĬ¡
ä» ĭ
ç» ľ
ç»ı æµİ
æłĩ åĩĨ
èµĦ æł¼
è¾ ¾
ä¾Ŀçħ§ æ³ķå¾ĭ
ç¡®å®ļ çļĦ
åĽ½å®¶ æīĢæľī
åħ¨ éĥ¨
åħ±æľī äºº
ä¸ªäºº ä¿¡æģ¯
æ°ĳäºĭè¡Įä¸ºèĥ½åĬĽ äºº
æľīä¸ĭåĪĹæĥħå½¢ä¹ĭä¸Ģ çļĦ
ç½ĳ ç»ľ
åĬ ³
è´ Ń
æĪ ¿
åºĶå½ĵ åľ¨
åºĶå½ĵ ä¾Ŀæ³ķ
æĶ ¹
ä¿Ŀè¯ģ è´£ä»»
ç«ł ç¨ĭ
ç»Ħç»ĩ æĪĸèĢħ
åĲĪä¼Ļ äºº
æķ° é¢Ŀ
çģŃå¤± çļĦ
ä¹¦éĿ¢ å½¢å¼ı
é£İ éĻ©
é Ĥ
Ĳ æĸĻ
äºº èº«
æĿ ĲæĸĻ
å® ħ
æī ¹
åĪ «
ä¸į åı¯
å¤ Ł
æĭ ©
åĲĪåĲĮ æĺ¯
åĪ© çĶ¨
å¼ ł
ä¼ ģ
åĮ º
ä¸» è¦ģ
ä¸» å¼ł
è´¨ æĬ¼
è½¬ ç§»
åĲİ æŀľ
è¢« ä¾µæĿĥäºº
çĻ»è®° çļĦ
çĽ¸ åħ³
ä¾Ľ çĶµ
åİŁ åĽł
åľŁåľ° æī¿åĮħç»ıèĲ¥
çł Ķ
è¿Ľ è¡Į
éĢī æĭ©
åĲĪæ³ķ æĿĥçĽĬ
ä¹Ł åı¯ä»¥
ç ±
è¯ Ĩ
çī© åĵģ
æķ Ļ
æ°ĳ å§Ķåĳĺä¼ļ
å§ ĭ
å½ĵäºĭäºº ä¸Ģæĸ¹
ä»£ è¡¨
æĬĢæľ¯ æĪĲæŀľ
åĲį ç§°
ç§Łèµģçī© çļĦ
éļ Ĳ
è¶ ³
æķħ æĦı
æ³ķå¾ĭåı¦æľī è§Ħå®ļçļĦ
ç¬¬äºĶçĻ¾ä¸Ģåįģ æĿ¡
å§ĵ åĲį
ä¼ģ ä¸ļ
³ æģ¯
è ŀ
é ĺ
ĺ å¯Ĩ
ä¸ §
æī ¶
æľī æķĪ
è¯ ¢
æĪĸèĢħ åºĶå½ĵ
åĲĪåĲĮ æĪĲç«ĭ
ç§ ĺå¯Ĩ
å¯ Ħ
åģ ľ
åĢºåĬ¡ çļĦ
æī¿æĭħ ä¾µæĿĥè´£ä»»
åŃ ³æģ¯
ç¬¬ä¸ī äººçļĦ
èĥ½ å¤Ł
æĢ ģ
åħ³ç³» çļĦ
éļ ı
åºĶå½ĵæī¿æĭħ ä¾µæĿĥè´£ä»»
æ¸ħ ç®Ĺ
è¿ĩéĶĻ çļĦ
åīįæ¬¾ è§Ħå®ļçļĦ
ä»į ä¸įèĥ½
æĶ¾ å¼ĥ
å±ħ ä½ı
è¡Įçºª äºº
åıĹè®© äºº
èŀ į
ç Ĭ
ç ľ
ç Ŀ
é ķ
æĪ ·
ä¸Ģ èĩ´
éĻ ħ
æį Ĳ
åĢºåĬ¡ äººçļĦ
åĬ¨ çī©
æĮī ä»½
éģĹ å¤±
æĬµæĬ¼ æĿĥäºº
ä»· æł¼
èĮĥåĽ´ åĨħ
çł ´
åĸĦ æĦı
æ²¡æľīçº¦å®ļæĪĸèĢħçº¦å®ļä¸įæĺİç¡® çļĦ
è£ ģ
åĨľ æĿĳ
åľ°å½¹ æĿĥ
ç»Ħç»ĩæĪĸèĢħ ä¸ªäºº
ç± »
èŀį èµĦ
¢ å¤į
² è£ģ
äºº åĳĺ
æĿ Ł
ä» ²è£ģ
æī ĭ
è¯ ķ
çĶ¨ çĽĬ
ç§ į
åĪ© æģ¯
åĴĮ åħ¶ä»ĸ
å¼ Ĥ
æī¿æĭħ èµĶåģ¿è´£ä»»
çŃ ¾
å¾Ĺ çļĦ
è¡Įä¸º çļĦ
åĪĨ éħį
çĶŁ äº§
æıĲ åīį
è´¨ æĿĥ
æĢ ¥
ä»£ ç®¡
çĻ»è®° æľºæŀĦ
éģĹ èµł
èµĶåģ¿ æįŁå¤±
ç§Łèµģ åĲĪåĲĮ
ä¸Ń ä»ĭ
æģ ¢å¤į
çļĦè§Ħå®ļ ä»įä¸įèĥ½
æĬ¥ åĳĬ
èĤ ²
è¿½ è®¤
éĽĨä½ĵ æīĢæľī
å¿ħè¦ģ çļĦ
æī¿æı½ äºº
ç»´ ä¿®
éĩĩçĶ¨ ä¹¦éĿ¢å½¢å¼ı
é¡º åºı
ä¾Ŀæį®æľ¬æ³ķ ç¬¬äºĶçĻ¾ä¸ĢåįģæĿ¡
ç© ¶
è´Ń ä¹°
çłĶ ç©¶
å¯Ħ åŃĺ
ä¾Ŀæį®æľ¬æ³ķç¬¬äºĶçĻ¾ä¸ĢåįģæĿ¡ çļĦè§Ħå®ļä»įä¸įèĥ½
º Ĳ
æ ºĲ
ä¸ ¤
çļĦ æľīåħ³è§Ħå®ļ
äºº æľª
äºº æł¼
ä¹ ł
ä¸Ģ å¹¶
æĬ ¢
å¤ ĩ
äºĭ çĶ±
è§ ģ
çĽ ´
åıĹ æ³ķå¾ĭ
åĢºåĬ¡ æĪĸèĢħ
æĮ ģ
æ°ĳäºĭ æĿĥåĪ©
æıĲ åĩº
å° ½
ä½Ĩæĺ¯ å½ĵäºĭäººåı¦æľīçº¦å®ļçļĦéĻ¤å¤ĸ
äº¤ æĺĵ
éĢłæĪĲ çļĦ
æľ¬ ç¼ĸ
äº¤ä»ĺ çļĦ
éļ ¾
è®¢ç«ĭ åĲĪåĲĮ
åºĶå½ĵæī¿æĭħ èµĶåģ¿è´£ä»»
çŁ¥éģĵ æĪĸèĢħåºĶå½ĵ
åĩºè´¨ äºº
æľĢ é«ĺ
äº§çĶŁ çļĦ
ä»»ä½ķ ç»Ħç»ĩæĪĸèĢħä¸ªäºº
æĤ £
æī¶ åħ»
çľ Ł
çłĶç©¶ å¼Ģåıĳ
çŁ¥éģĵæĪĸèĢħåºĶå½ĵ çŁ¥éģĵ
éĢ Ķ
å± ĭ
åĪ© å®³
æķ ´
æĪĲ åĳĺ
æĹ¶ çļĦ
æĸ¹ æ³ķ
æī¿æĭħ æ°ĳäºĭè´£ä»»
æī¿æĭħ è¿ŀå¸¦è´£ä»»
åľ° çļĦ
è®¾ è®¡
å±¥è¡Į çļĦ
æĶ¶ çĽĬ
æıĲ åıĸ
æĸ½ å·¥
å®ŀ éĻħ
æ³ķäºº ç«łç¨ĭ
å§Ķæīĺ äºĭåĬ¡
ç»§ ç»Ń
æįŁå®³ èµĶåģ¿
æľīæĿĥ åĲĳ
éĢĤ å½ĵ
è¾ ©
åĢºæĿĥ äººçļĦ
ç¨ĭ åºı
å¦ ¨
çİ ¯
ç¼ º
æµ ģ
ä»ĵ åįķ
æĬĹ è¾©
å¢ ĥ
åĮ»çĸĹ æľºæŀĦ
æķĻ èĤ²
ä¾Ŀæį®æľ¬æ³ķç¬¬äºĶçĻ¾ä¸ĢåįģæĿ¡çļĦè§Ħå®ļä»įä¸įèĥ½ ç¡®å®ļçļĦ
¨ è¯¢
å ²
å ĭ
å ŀ
ç ĭ
ç ĳ
Ġ åĲĪ
ķ çĸ
ç¬¬ äºĮåįģ
åº ·
åĲĮ ä¸Ģ
åĢ ¼
åºĶå½ĵ æĮīçħ§
åĢº æĿĥçļĦ
åĴ ¨è¯¢
å¼ º
æī¿æĭħ ä¿Ŀè¯ģè´£ä»»
åŃ ¦
çĶŁ æĢģ
å° ĳ
è¯·æ±Ĥ æĿĥ
å» ¶
æİ ¨
æİ Ĵ
æĬĢæľ¯ ç§ĺå¯Ĩ
æĬµæĬ¼ è´¢äº§
ä¿Ŀç®¡ çī©
åĢºæĿĥ åĢºåĬ¡
çĽĳæĬ¤ äººçļĦ
ä¸įåĬ¨äº§ çĻ»è®°
åıĳçĶŁ æķĪåĬĽ
ç»Ļ äºĪ
åĤ ¬
çī¹ å®ļ
å¢ ŀ
æŃ£ å½ĵ
æĪ¿ å±ĭ
éĤ »
çĬ ¶
åıĹæ³ķå¾ĭ ä¿ĿæĬ¤
æĤ£ èĢħ
çİ¯ å¢ĥ
çĭ ¬
çĳ ķçĸ
çĳķçĸ µ
¥ åº·
· ¯
¾ æľŁ
å Ħ
æ Ł
è İ
è ·¯
Ġ åĲĮ
æĬ ķ
æĬ ĺ
ä¾ ĭ
åºĶå½ĵ åĲĳ
åĲĪåĲĮ å®ļä¹ī
éĢ ¾æľŁ
åģ ¶
åģ ¥åº·
åıĹ å®³
æĶ¶ è´§
äº¤ éĢļ
çĽ¸ éĤ»
ä¹ĭ åīį
èĲ ½
åı¦ ä¸Ģæĸ¹
è¿ĩ å¤±
çĽĳ çĿ
å¸ ¸
åıĺ åįĸ
æĭħä¿Ŀ çļĦ
åĲį èªī
å¼Ģ å§ĭ
çī©ä¸ļæľįåĬ¡ äºº
æŃ»äº¡ çļĦ
ç´ §
å¾ģ æĶ¶
èĲ¥åĪ© æ³ķäºº
è°ĥ æķ´
éĢģ åħ»
åĬ³ åĬ¡
éĺ ²
å¼Ĥ è®®
çĽ´ æİ¥
æľĢé«ĺ é¢Ŀ
åĦ ¿
èİ ·
çĽĳçĿ £
å £
è Ļ
ä¸ ¥
ä¸ Ķ
å®ļ éĩĳ
æľī è¿ĩéĶĻçļĦ
åĪ Ĵ
æ³ ¨
ä¸į å½±åĵį
äºĭ æķħ
äº§ åĵģ
æ° ´
åıĹ çĽĬ
æī¿æĭħ è¿Ŀçº¦è´£ä»»
å®³ è´£ä»»
æīĺ è¿Ĳäºº
æŃ ¤
å½ĵäºĭ äººçļĦ
æĶ¶ åıĸ
æıĲ èµ·
è¢« ç»§æī¿äºº
çĽ¸ åĲĮ
æĥ ¯
æ¯ Ķ
æĶ¯ä»ĺ æĬ¥éħ¬
äººåºĶå½ĵ æĮīçħ§çº¦å®ļ
ä¸Ń æŃ¢
åŃĺ è´§
åħ¬ åħ±
èĩ´ å®³è´£ä»»
éļ ľ
éªĮ æĶ¶
å¤«å¦» åħ±åĲĮ
åīįæ¬¾ è§Ħå®ļ
å¹³ çŃī
ä»ĵåĤ¨ çī©
èģĶ è¿Ĳ
è´¨æĬ¼ è´¢äº§
ä¸§ å¤±
ä¹ł æĥ¯
çľŁ å®ŀ
åĪ©å®³ åħ³ç³»
åĭ ĺ
åĤ¬ åĳĬ
ç´§ æĢ¥
¸ ª
è ¸ª
Ġ å®ļ
äº ī
çļĦ æĸ¹å¼ı
çļĦ æĹ¶éĹ´
çļĦ ä¸įåĬ¨äº§æĪĸèĢħåĬ¨äº§
ä½ Ļ
ä¸Ģ å¹´
æī¿ è¿Ĳ
æĸ Ń
åºĶå½ĵ éĩĩçĶ¨ä¹¦éĿ¢å½¢å¼ı
å¯ Ł
åĴĮ æĬĢæľ¯
åĴĮ åĽ½
åıĹ åģ¿
åĨ į
æī¿æĭħ è´£ä»»
æ± ¡
åľ¨ åĲĪçĲĨæľŁéĻĲåĨħ
å½ĵäºĭäºº åı¯ä»¥
è®° è½½
ä»£ ä½į
æłĩ çļĦ
è¢« ä»£çĲĨäºº
å¼ı èģĶè¿Ĳ
çŁ¥ è¯Ĩ
ä¸įå¾Ĺ å¯¹
æĬµæĬ¼ æĿĥçļĦ
èµĦ æºĲ
ä»· åĢ¼
åĪ° è¾¾
åĢºæĿĥ è½¬è®©
ä¾Ŀçħ§ æ³ķå¾ĭè§Ħå®ļ
åħ¬ å¼Ģ
æĹ¥ æľŁ
æĴ¤éĶĢ æĿĥ
å®ŀæĸ½ çļĦæ°ĳäºĭæ³ķå¾ĭè¡Įä¸º
ä»¥åıĬ åħ¶ä»ĸ
å·¥ä½ľ æĪĲæŀľ
ä½ı æīĢ
åĿ ı
å®ĮæĪĲ çļĦ
æ³ķå¾ĭåı¦æľī è§Ħå®ļ
è£ ħ
äº² å±ŀ
åĲĦ èĩª
å¤ļ å¼ıèģĶè¿Ĳ
åıĳåĮħ äºº
ä¸ĢèĪ¬ åĮħæĭ¬
æįĲ åĬ©
äº¤éĢļ äºĭæķħ
åĭĺ å¯Ł
¥ åĸĦ
© ä½Ļ
Ġ è§Ħ
æľ Ī
åį İ
è´ ·
åĪ ¤
åĲĪ ä½ľ
åº ľ
ä¸į æĪĲ
çĶ¨ éĢĶ
ä¿Ŀ éĻ©
ä¿Ŀ å¯Ĩ
ä¿Ŀ éļľ
æį ¢
æ°ĳ æĶ¿
åĴĮ ä¹īåĬ¡
æ¬ ¡
ä»ĸ äººçļĦ
éģ µ
æĿĥåĪ© çļĦ
å½ĵäºĭäºº å¯¹
å¤± è¸ª
è´¢äº§ ä»£ç®¡
åĲİ çļĦ
åī ©ä½Ļ
è¢« æĴ¤éĶĢ
æľ¬ ç«ł
å¸ Ĥ
åĲĪåĲĮçļĦ åĨħå®¹
å±ŀ è®¾æĸ½
éĢĤçĶ¨ æľ¬æ³ķ
å¦ ¥åĸĦ
åĳĬ çŁ¥
äººåı¯ä»¥ è¯·æ±Ĥ
åįı åĬ©
åĲį ä¹ī
ç¬¬ä¸ĢåįĥéĽ¶ ä¹Ŀåįģ
è´Ł è´£
è¿Ŀçº¦ éĩĳ
éĿŀ æ³ķ
å±ŀäºİ åĽ½å®¶æīĢæľī
åĿ ĩ
çī¹ æ®
åıĬåħ¶ éĻĦ
ä¼ĺåħĪ åıĹåģ¿
åħį éĻ¤
éĩįå¤§ è¿ĩå¤±
éļı æĹ¶
æīĭ ç»Ń
ä»»ä½ķç»Ħç»ĩæĪĸèĢħä¸ªäºº ä¸įå¾Ĺ
å¼º åĪ¶
æĬĺ ä»·
åıĹå®³ äºº
å£ °
æ¯Ķ ä¾ĭ
æ°ĳæĶ¿ éĥ¨éĹ¨
çī¹æ® Ĭ
åıĬåħ¶éĻĦ å±ŀè®¾æĸ½
å Ķ
è ī
è ĳ
Ġ æĿĥ
çļĦ æĥħå½¢
äºº ä¸º
åħ ħ
è¯ ¯
åĲĮ æĹ¶
è¿ ĳ
çº¦ æĿŁ
å¯ ¼
åĩ Ń
åıĹ é¢Ĩ
æī¿æĭħ çĽ¸åºĶçļĦ
è½ »
æ°ĳäºĭ æ´»åĬ¨
è¯ģ æį®
å° Ĭ
åıĳ çİ°
åħ» åŃĲå¥³
æ³ķäºº èµĦæł¼
åħ± åĴĮåĽ½
è¢« çĽĳæĬ¤äºº
ç¡® è®¤
æĶ¯ä»ĺ ä»·æ¬¾
ä¸Ń åįİ
åŃĺ åľ¨
åŃĺ ç»Ń
æ²¡æľī è§Ħå®ļçļĦ
åĽĽåįģ ä¸īæĿ¡
æĴ¤ åĽŀ
äººæ°ĳ åħ±åĴĮåĽ½
æ¶ ī
æĶ¶åħ» åħ³ç³»
è´¹çĶ¨ çļĦ
èĩªçĦ¶ äººçļĦ
æķ° éĩı
æ³ķå®ļ ä»£è¡¨
å°± è¯¥
æ¶Ī éĻ¤
è¦ģçº¦ äºº
é«ĺ åº¦
éħį åģ¶
ä»¥ä¸Ĭ çļĦ
åĩı è½»
ç»´ æĬ¤
ç»ĵ å©ļ
é¢Ĩ åıĸ
äººåºĶå½ĵæĮīçħ§ çº¦å®ļçļĦ
æķħæĦı æĪĸèĢħ
éģĹå¤± çī©
æŁ ĵ
æıĲèµ· è¯īè®¼
æ±¡ æŁĵ
ä¸Ńåįİ äººæ°ĳåħ±åĴĮåĽ½
¢ į
¨ å²
´ æĺİ
æ Ĳ
ç ¢į
é ¥
Ġ ä¸Ģ
Ġ èĪ¬
çļĦ æĦıæĢĿè¡¨ç¤º
åı Ī
è¯ ´æĺİ
åĬ¡ äººåĳĺ
éĻ ·
ä¸į åıĹ
ä¸į è¶³
åĲĪåĲĮ è§£éĻ¤
åĲĪåĲĮ ç»ĪæŃ¢
å± ķ
çĲĨ çĶ±
çº¦å®ļ å¤ĸ
ç¬¬ä¸Ģ èĬĤ
æīĺ è¿Ĳ
å½ĵäºĭäºº çº¦å®ļçļĦ
çŃī æĸ¹å¼ı
èĥ Į
è´¨ æĿĥçļĦ
åĳ ¨å²
è½¬ å§Ķæīĺ
è¢« å®£åĳĬ
è¢« çĽĳæĬ¤äººçļĦ
éĢļ è¿ĩ
åĢºåĬ¡äºº ä¸įå±¥è¡Į
æľīåħ³ çļĦ
åĽĽåįģ ä¸ĢæĿ¡
è®¢ç«ĭ åĲĪåĲĮçļĦ
è®¸åı¯ äºº
å®Į åħ¨
åĮ» åĬ¡äººåĳĺ
çķĻç½® æĿĥ
æĿĳ æ°ĳå§Ķåĳĺä¼ļ
è¡ĮæĶ¿æ³ķè§Ħ çļĦè§Ħå®ļ
åĩı å°ĳ
ä¸įç¬¦åĲĪ çº¦å®ļçļĦ
åĩºèµĦ äºº
åºĶå½ĵåıĬæĹ¶ éĢļçŁ¥
åľŁåľ°æī¿åĮħç»ıèĲ¥ æĿĥ
çł´ åĿı
èŀįèµĦ ç§ŁèµģåĲĪåĲĮ
è¯ķ çĶ¨
ä¸¤ ä¸ª
å°½ åĪ°
éļ¾ ä»¥
çŁ¥è¯Ĩ äº§
è¿ĳ äº²å±ŀ
é«ĺåº¦ åį±éĻ©
åĳ¨å² ģ
£ èªī
² ¾
² åħ»
ç ²¾
çļĦ è¡Įä¸º
äºº ä½ĵ
çĶ ·
æĪĸèĢħ ä»²è£ģ
çī© æĿĥäºº
æĭħ ä»»
åĪ© äºİ
è´£ä»» æī¿æĭħ
èĩª æĦ¿
éģ ¿
çĶŁ çĪ¶æ¯į
æīĢ å¾ĹçļĦ
åĽł æŃ¤
æĮīçħ§ åħ¶
ä½ľ ä¸º
å¼ı æĿ¡æ¬¾
æĹł æĿĥ
æĬĢæľ¯ åĴ¨è¯¢
æĶ¯ä»ĺ çļĦ
æĶ¯ä»ĺ ç§Łéĩĳ
ç§Łèµģ æľŁéĻĲå±Ĭæ»¡
äººåºĶå½ĵ åľ¨
åĢºåĬ¡äºº å¯¹
è¿ĩ ç¨ĭ
åĽĽåįģ äºĮæĿ¡
åĽĽåįģ äºĶæĿ¡
åı¦æľī çº¦å®ļçļĦéĻ¤å¤ĸ
ä¸īåįģ ä¸ĥæĿ¡
æł¼ å¼ıæĿ¡æ¬¾
åŃĲå¥³ çļĦ
æıĲä¾Ľ çļĦ
æī¿åĮħ äºº
å¤ĦçĲĨ å§ĶæīĺäºĭåĬ¡
åŁ Ł
æ³ķå®ļ ä»£çĲĨäºº
è¡¥ æķĳ
ä½ı å®ħ
æĮĩ ç¤º
å©ļå§» åħ³ç³»
å¼Ģåıĳ åĲĪåĲĮçļĦ
å½¹ åľ°
ç¥ ŀ
ä¼ĺåħĪ è´Ńä¹°
ç´ ¢
èĲ¥åĪ© æ³ķäººçļĦ
è¯īè®¼æĹ¶æķĪ æľŁéĹ´
çļĦæ³ķå¾ĭ åĲİæŀľ
èį £èªī
ç»ıæµİ ç»Ħç»ĩ
å®ħ åŁº
éļĲ ç§ģ
éķ ¿
å¯ĦåŃĺ äºº
è§ģ è¯ģ
äº¤æĺĵ ä¹łæĥ¯
æİ¨ å®ļ
ä¸įå¾Ĺå¯¹ æĬĹ
æ³ķå¾ĭåı¦æľīè§Ħå®ļ æĪĸèĢħ
çº¦æĿŁ åĬĽ
