{"<s>":0,"<pad>":1,"</s>":2,"<unk>":3,"!":4,"\"":5,"#":6,"$":7,"%":8,"&":9,"'":10,"(":11,")":12,"*":13,"+":14,",":15,"-":16,".":17,"/":18,"0":19,"1":20,"2":21,"3":22,"4":23,"5":24,"6":25,"7":26,"8":27,"9":28,":":29,";":30,"<":31,"=":32,">":33,"?":34,"@":35,"A":36,"B":37,"C":38,"D":39,"E":40,"F":41,"G":42,"H":43,"I":44,"J":45,"K":46,"L":47,"M":48,"N":49,"O":50,"P":51,"Q":52,"R":53,"S":54,"T":55,"U":56,"V":57,"W":58,"X":59,"Y":60,"Z":61,"[":62,"\\":63,"]":64,"^":65,"_":66,"`":67,"a":68,"b":69,"c":70,"d":71,"e":72,"f":73,"g":74,"h":75,"i":76,"j":77,"k":78,"l":79,"m":80,"n":81,"o":82,"p":83,"q":84,"r":85,"s":86,"t":87,"u":88,"v":89,"w":90,"x":91,"y":92,"z":93,"{":94,"|":95,"}":96,"~":97,"¡":98,"¢":99,"£":100,"¤":101,"¥":102,"¦":103,"§":104,"¨":105,"©":106,"ª":107,"«":108,"¬":109,"®":110,"¯":111,"°":112,"±":113,"²":114,"³":115,"´":116,"µ":117,"¶":118,"·":119,"¸":120,"¹":121,"º":122,"»":123,"¼":124,"½":125,"¾":126,"¿":127,"À":128,"Á":129,"Â":130,"Ã":131,"Ä":132,"Å":133,"Æ":134,"Ç":135,"È":136,"É":137,"Ê":138,"Ë":139,"Ì":140,"Í":141,"Î":142,"Ï":143,"Ð":144,"Ñ":145,"Ò":146,"Ó":147,"Ô":148,"Õ":149,"Ö":150,"×":151,"Ø":152,"Ù":153,"Ú":154,"Û":155,"Ü":156,"Ý":157,"Þ":158,"ß":159,"à":160,"á":161,"â":162,"ã":163,"ä":164,"å":165,"æ":166,"ç":167,"è":168,"é":169,"ê":170,"ë":171,"ì":172,"í":173,"î":174,"ï":175,"ð":176,"ñ":177,"ò":178,"ó":179,"ô":180,"õ":181,"ö":182,"÷":183,"ø":184,"ù":185,"ú":186,"û":187,"ü":188,"ý":189,"þ":190,"ÿ":191,"Ā":192,"ā":193,"Ă":194,"ă":195,"Ą":196,"ą":197,"Ć":198,"ć":199,"Ĉ":200,"ĉ":201,"Ċ":202,"ċ":203,"Č":204,"č":205,"Ď":206,"ď":207,"Đ":208,"đ":209,"Ē":210,"ē":211,"Ĕ":212,"ĕ":213,"Ė":214,"ė":215,"Ę":216,"ę":217,"Ě":218,"ě":219,"Ĝ":220,"ĝ":221,"Ğ":222,"ğ":223,"Ġ":224,"ġ":225,"Ģ":226,"ģ":227,"Ĥ":228,"ĥ":229,"Ħ":230,"ħ":231,"Ĩ":232,"ĩ":233,"Ī":234,"ī":235,"Ĭ":236,"ĭ":237,"Į":238,"į":239,"İ":240,"ı":241,"Ĳ":242,"ĳ":243,"Ĵ":244,"ĵ":245,"Ķ":246,"ķ":247,"ĸ":248,"Ĺ":249,"ĺ":250,"Ļ":251,"ļ":252,"Ľ":253,"ľ":254,"Ŀ":255,"ŀ":256,"Ł":257,"ł":258,"Ń":259,"äº":260,"ãĢ":261,"ä¸":262,"çļ":263,"çļĦ":264,"äºº":265,"æĿ":266,"æľ":267,"ä»":268,"åĲ":269,"åħ":270,"å®":271,"åı":272,"åį":273,"ãĢĤ":274,"æĿĥ":275,"åĬ":276,"ç¬":277,"æī":278,"ç¬¬":279,"è´":280,"æĪ":281,"çĶ":282,"å®ļ":283,"å½":284,"æĿ¡":285,"æľī":286,"ãĢģ":287,"čĊ":288,"åĪ":289,"çĻ":290,"è®":291,"ĠãĢ":292,"ãĢĳ":293,"ĠãĢĲ":294,"ä¹":295,"æ³":296,"åįģ":297,"æ³ķ":298,"ä½":299,"ä¸Ģ":300,"ç»":301,"è¡":302,"çĻ¾":303,"èĢ":304,"å½ĵ":305,"æĬ":306,"è¯":307,"åĲĪ":308,"èĢħ":309,"åº":310,"åĬ¡":311,"æĪĸ":312,"éĻ":313,"åĲĮ":314,"æĪĸèĢħ":315,"æī¿":316,"ä¸į":317,"åĽ":318,"å¤":319,"è¡Į":320,"è¿":321,"çī":322,"åºĶ":323,"ä»¥":324,"äºĭ":325,"è§":326,"åĢ":327,"çī©":328,"æĸ":329,"å¾":330,"æĹ":331,"ä¿":332,"æĭ":333,"ä¾":334,"çº":335,"çĶ¨":336,"åľ":337,"åºĶå½ĵ":338,"èµ":339,"åĢº":340,"åĲĪåĲĮ":341,"çº¦":342,"æĶ":343,"éĢ":344,"äº§":345,"çĽ":346,"ç§":347,"ä¿Ŀ":348,"åı¯":349,"ä»»":350,"è´£":351,"å±":352,"å¯":353,"çĲ":354,"æĭħ":355,"çĲĨ":356,"ä¸ī":357,"åĪ©":358,"è§Ħ":359,"æį":360,"æĺ":361,"ä¸º":362,"æ°":363,"åĩ":364,"è´£ä»»":365,"çº¦å®ļ":366,"æķ":367,"æĪĲ":368,"äºĮ":369,"åħ¶":370,"åĴ":371,"æ°ĳ":372,"å¯¹":373,"è§Ħå®ļ":374,"åı¯ä»¥":375,"åĴĮ":376,"ç«":377,"ç§Ł":378,"èĩ":379,"æľŁ":380,"å¼":381,"æĹ¶":382,"åģ":383,"åıĹ":384,"åĨ":385,"æł":386,"ç¬¬ä¸Ģ":387,"æĸ¹":388,"åĢºåĬ¡":389,"äººçļĦ":390,"äºĶ":391,"ç®":392,"çħ":393,"çħ§":394,"åĩº":395,"åħ³":396,"å§":397,"å¾ĭ":398,"éĩ":399,"æ³ķå¾ĭ":400,"æī¿æĭħ":401,"çŃ":402,"åĽĽ":403,"ä¹ī":404,"ä½¿":405,"åħŃ":406,"æįŁ":407,"æ¬":408,"éĻ¤":409,"æĮ":410,"åħ«":411,"ä¹Ŀ":412,"ä¸ĥ":413,"åģ¿":414,"è½":415,"åŃ":416,"æ¬¾":417,"å®³":418,"å¾Ĺ":419,"åĬ¨":420,"åľ°":421,"èĩª":422,"æı":423,"ä¾Ŀ":424,"ä»ĸ":425,"ä»ĺ":426,"ç®¡":427,"æ±":428,"éģ":429,"å¹":430,"è¯·":431,"éĻĲ":432,"æĿĥäºº":433,"æīĺ":434,"ä¼":435,"æŃ":436,"å·":437,"è®¾":438,"è¡Įä¸º":439,"æ°ĳäºĭ":440,"æ±Ĥ":441,"ç«ĭ":442,"åĪĨ":443,"ç»ı":444,"æĺ¯":445,"¦ģ":446,"å½ĵäºĭ":447,"ç¬¬ä¸ī":448,"çĶŁ":449,"ä¹īåĬ¡":450,"¥è¡Į":451,"å±¥è¡Į":452,"åĮ":453,"åıĬ":454,"æĿĥåĪ©":455,"æĶ¶":456,"åľ¨":457,"ä¸ļ":458,"æķĪ":459,"å½ĵäºĭäºº":460,"çŃī":461,"éĽ":462,"èĥ":463,"è¯ģ":464,"æĦ":465,"æıĲ":466,"æīĢ":467,"å¤±":468,"åįĥ":469,"ç¬¬ä¸Ģåįĥ":470,"æĮī":471,"ä¸»":472,"è´¢":473,"è´¢äº§":474,"éĹ":475,"è¦ģ":476,"è´¨":477,"æŀ":478,"çĶ±":479,"å§Ķ":480,"å°":481,"åĳ":482,"ä¸İ":483,"Ł¥":484,"åĬĽ":485,"åĽł":486,"æĬ¤":487,"è½¬":488,"è¯·æ±Ĥ":489,"åıĳ":490,"ä¾µ":491,"èĥ½":492,"æĦı":493,"æľª":494,"åħ»":495,"å¤ĸ":496,"ä½¿çĶ¨":497,"æĮīçħ§":498,"åĲİ":499,"è®°":500,"æľŁéĻĲ":501,"æĢ":502,"æĸ½":503,"ä½ľ":504,"å®ŀ":505,"ç¡":506,"æľº":507,"ä½Ĩ":508,"æ³ķäºº":509,"ä½Ĩæĺ¯":510,"ä»£":511,"éĹ´":512,"æłĩ":513,"å»":514,"åħ±":515,"è®©":516,"å§Ķæīĺ":517,"¢«":518,"åī":519,"è¢«":520,"éĽ¶":521,"æĬ¼":522,"äº¤":523,"ç§Łäºº":524,"ç¡®":525,"å¼ı":526,"èµĶ":527,"åĨħ":528,"»è®°":529,"çŁ¥":530,"çĻ»è®°":531,"æİ":532,"åıĸ":533,"è¯¥":534,"ç»§":535,"æĶ¯":536,"çĽ¸":537,"éĶ":538,"æĥ":539,"çĽĬ":540,"åĲĳ":541,"æĬµ":542,"ä¸įå¾Ĺ":543,"æĺİ":544,"åĬ¨äº§":545,"åįĸ":546,"è¿Ĳ":547,"åħ¶ä»ĸ":548,"é¢":549,"åĮħ":550,"éģĹ":551,"èµĶåģ¿":552,"æįŁå®³":553,"æľ¯":554,"éĢł":555,"å·¥":556,"å»º":557,"æĿĥçļĦ":558,"æĬĢ":559,"æĹł":560,"ä½ĵ":561,"æĬĢæľ¯":562,"éĥ":563,"æ¯":564,"è§£":565,"æĶ¯ä»ĺ":566,"èµģ":567,"ç§Łèµģ":568,"æĬµæĬ¼":569,"æľīæĿĥ":570,"è´¹":571,"æĥħ":572,"éĢłæĪĲ":573,"éĥ¨":574,"äººåºĶå½ĵ":575,"ä¾Ľ":576,"³»":577,"ç³»":578,"å½¢":579,"æľ¬":580,"ä¹ĭ":581,"äºİ":582,"èµĦ":583,"çļĦçī©":584,"äºĮçĻ¾":585,"éĢļ":586,"è¿Ŀ":587,"èĲ":588,"åĢºåĬ¡äºº":589,"ç»§æī¿":590,"æ²":591,"æľį":592,"åı¦":593,"éĢĤ":594,"åīį":595,"è¿ĩ":596,"ä¾Ŀæ³ķ":597,"ä¹°":598,"è½¬è®©":599,"æľīåħ³":600,"çĽĳ":601,"çº¦å®ļçļĦ":602,"æľįåĬ¡":603,"ä¸Ń":604,"æŃ¢":605,"å©":606,"ç¬¬äºĶ":607,"æģ":608,"éĿ":609,"ä»·":610,"æį®":611,"åħ³ç³»":612,"æŀĦ":613,"åĵ":614,"åĽ½":615,"ä¿Ŀç®¡":616,"ä¿Ŀè¯ģ":617,"å©ļ":618,"ä¸Ģåįģ":619,"äºĮåįģ":620,"¡æľī":621,"åŃĺ":622,"æłĩçļĦçī©":623,"æ²¡æľī":624,"è¾":625,"éĻ¤å¤ĸ":626,"å¸":627,"å¤Ħ":628,"åĲĪåĲĮçļĦ":629,"ç«ł":630,"èĲ¥":631,"ç¨":632,"å±ŀ":633,"å®¶":634,"å¥":635,"åĽĽåįģ":636,"ç®¡çĲĨ":637,"åĪ°":638,"ç»Ħ":639,"è§Ħå®ļçļĦ":640,"åİ":641,"åĢºæĿĥ":642,"åĢºæĿĥäºº":643,"å¹¶":644,"å¥³":645,"ä¸īæĿ¡":646,"ä¹Ŀåįģ":647,"éĶĢ":648,"åı¦æľī":649,"æī¿ç§Łäºº":650,"ç¬¬ä¸īäºº":651,"åıĺ":652,"ä¸ĢæĿ¡":653,"äºĮæĿ¡":654,"åŃĲ":655,"å¹´":656,"ç¬¬äºĶçĻ¾":657,"ç¨ĭ":658,"åħ«æĿ¡":659,"ä¸īåįģ":660,"åĽĽæĿ¡":661,"éĢĤçĶ¨":662,"ä¸ĥæĿ¡":663,"æľºæŀĦ":664,"å¦":665,"ç¤":666,"ä¸ª":667,"ç»ĩ":668,"äºĶæĿ¡":669,"åħŃæĿ¡":670,"åħŃåįģ":671,"ä¹ĿæĿ¡":672,"ä»£çĲĨ":673,"ç»Ħç»ĩ":674,"è§£éĻ¤":675,"ä¸Ģæĸ¹":676,"çĽĳæĬ¤":677,"ä¸ĭ":678,"ä¼ļ":679,"åĳĬ":680,"åħ«åįģ":681,"ä¸ĥåįģ":682,"äººåı¯ä»¥":683,"åĪ¶":684,"äºĶåįģ":685,"ä¾Ŀçħ§":686,"äº¤ä»ĺ":687,"åİŁ":688,"é¡":689,"æĸ¹å¼ı":690,"éĩĳ":691,"æĴ":692,"åįı":693,"ä¸įåĬ¨äº§":694,"æįŁå¤±":695,"æģ¯":696,"æł¼":697,"é¢Ŀ":698,"ç¬¬åĽĽ":699,"åŃĲå¥³":700,"æĴ¤":701,"åħ¬":702,"ç¬¬åħŃ":703,"è¡¨":704,"æĭħä¿Ŀ":705,"åĲį":706,"æıĲä¾Ľ":707,"æīĢæľī":708,"æĢ§":709,"å»ºè®¾":710,"ç½":711,"è®®":712,"è®¢":713,"ä»ĸäºº":714,"ä¾µæĿĥ":715,"äººæ°ĳ":716,"æĹ¥":717,"ç¬¬ä¸ĢåįĥéĽ¶":718,"äº«":719,"æĽ":720,"ç¬¬ä¸ĥ":721,"ç¡®å®ļ":722,"çĦ":723,"çĪ":724,"èģ":725,"ç¬¬åħ«":726,"ç¬¬ä¹Ŀ":727,"èĩ´":728,"å¼Ģ":729,"ç¬¬ä¸ĢçĻ¾":730,"è®¾ç«ĭ":731,"ä¸ļä¸»":732,"çĦ¶":733,"ç¬¬äºĮçĻ¾":734,"çĶµ":735,"æĥħå½¢":736,"ä¸ĢçĻ¾":737,"ç¬¬ä¸Ģåįĥä¸ĢçĻ¾":738,"ç¬¬åħŃçĻ¾":739,"çİ":740,"ç¬¬ä¸īçĻ¾":741,"ç§Łèµģçī©":742,"åĽ½å®¶":743,"äº«æľī":744,"éĥ¨åĪĨ":745,"ç¬¬ä¸ĥçĻ¾":746,"ç¬¬ä¹ĿçĻ¾":747,"éĩĩ":748,"ç¬¬åĽĽçĻ¾":749,"æĽ´":750,"ç¬¬åħ«çĻ¾":751,"éħ":752,"çļĦè§Ħå®ļ":753,"æ¯į":754,"æĴ¤éĶĢ":755,"æ¶":756,"æ»":757,"åįķ":758,"åĳĺ":759,"éĢļçŁ¥":760,"çĪ¶":761,"çģ":762,"åħ¨":763,"ä¿ĿæĬ¤":764,"å°Ĩ":765,"çī©ä¸ļ":766,"åħ±æľī":767,"éļ":768,"è´§":769,"éĻ©":770,"åĲĮæĦı":771,"æľŁéĹ´":772,"èĥ½åĬĽ":773,"åĩºåįĸ":774,"ç»ıèĲ¥":775,"æĶ¶åħ»":776,"æŀľ":777,"è´¹çĶ¨":778,"ç¼":779,"ä»¶":780,"éĻ¢":781,"æķĪåĬĽ":782,"åĲĪçĲĨ":783,"è¿ĺ":784,"æĶ¿":785,"éģĵ":786,"è®¢ç«ĭ":787,"è´Ł":788,"å®ŀæĸ½":789,"è¿Ŀçº¦":790,"æ´":791,"åħĪ":792,"åĪĹ":793,"æŃ»":794,"åĵģ":795,"çģŃ":796,"è¶":797,"è®¸":798,"æī¿åĮħ":799,"ä¿¡":800,"æ°ĳäºĭæ³ķå¾ĭ":801,"åıĳçĶŁ":802,"äº¡":803,"æĬ¥":804,"ä¸įèĥ½":805,"èĩªçĦ¶":806,"æįŁå®³çļĦ":807,"éĿŀ":808,"ç¤º":809,"ä¸ĭåĪĹ":810,"ä»½":811,"åľŁ":812,"èµł":813,"åĨ³":814,"èĮ":815,"ä¸Ĭ":816,"ä¹¦":817,"çĪ¶æ¯į":818,"çī©ä¸ļæľįåĬ¡":819,"åľŁåľ°":820,"èĮĥ":821,"çļĦæĿĥåĪ©":822,"æ³ķéĻ¢":823,"è¡Įä½¿":824,"ä»¥åıĬ":825,"äººæ°ĳæ³ķéĻ¢":826,"èĤ":827,"æ´»":828,"è®¸åı¯":829,"æ°ĳäºĭæ³ķå¾ĭè¡Įä¸º":830,"åįł":831,"å¤ĦçĲĨ":832,"åıĺæĽ´":833,"ä¸ªäºº":834,"æŃ»äº¡":835,"çĸ":836,"ä¼Ļ":837,"åıĬæĹ¶":838,"åŁ":839,"çĶ³":840,"éĩį":841,"å§Ķæīĺäºº":842,"ä¹°åıĹ":843,"å¸¦":844,"åĲĪä¼Ļ":845,"åĽ´":846,"æķ°":847,"ä¾µæĿĥè´£ä»»":848,"èĮĥåĽ´":849,"ä¸ĵ":850,"ç»Ļ":851,"æ»¡":852,"æ³ķå®ļ":853,"èµ·":854,"éĩı":855,"åĩºç§Łäºº":856,"çĶ³è¯·":857,"è¡¥":858,"ä¸įæĺİ":859,"åħ±åĲĮ":860,"çİ°":861,"æ¸":862,"è¿Ķ":863,"å¯¹æĸ¹":864,"åºĶå½ĵæī¿æĭħ":865,"åıĸå¾Ĺ":866,"æľ¬æ³ķ":867,"æ¸ħ":868,"éľ":869,"åĬŀ":870,"ä½į":871,"ç»Ī":872,"è¿ŀ":873,"çŃĳ":874,"å¿":875,"ä»İ":876,"ç»Ń":877,"æĪĲç«ĭ":878,"æĹ¶éĹ´":879,"çķ":880,"çļĦéĻ¤å¤ĸ":881,"åħ·":882,"å®Į":883,"åĢŁ":884,"åľ°ä½¿çĶ¨":885,"çĽĳæĬ¤äºº":886,"è¿Ķè¿ĺ":887,"ç»ĪæŃ¢":888,"è¿ŀå¸¦":889,"åĺ":890,"äººæĪĸèĢħ":891,"å½Ĵ":892,"è®¡":893,"å¤§":894,"åıĹæīĺ":895,"ç®Ĺ":896,"æİ¥":897,"é¡¹":898,"åĺ±":899,"º«":900,"èº«":901,"æł¹":902,"éģĹåĺ±":903,"è¾ĵ":904,"ç½®":905,"åĩºåįĸäºº":906,"åĤ":907,"çº¦å®ļæĪĸèĢħ":908,"åĨµ":909,"éĶĻ":910,"èµĶåģ¿è´£ä»»":911,"å·¥ä½ľ":912,"è¯ī":913,"æĸĻ":914,"åĪ©çĽĬ":915,"æĪĲå¹´":916,"çķĻ":917,"æł¹æį®":918,"æµ":919,"è¿½":920,"éĽĨ":921,"å°±":922,"æ¶Ī":923,"åĢŁæ¬¾":924,"åĪĻ":925,"èĩªå·":926,"èĩªå·±":927,"å®¹":928,"åĩĨ":929,"çŁ¥éģĵ":930,"éģĹäº§":931,"ä»·æ¬¾":932,"åįıè®®":933,"èģĮ":934,"åįłæľī":935,"çŃĳçī©":936,"éª":937,"åĬ©":938,"è®¤":939,"ä½ı":940,"å±Ĭ":941,"ä¾µå®³":942,"è¿Ĳè¾ĵ":943,"æĹłæķĪ":944,"å»ºè®¾çĶ¨":945,"ä¿¡æģ¯":946,"äºĪ":947,"å¤«":948,"è¡ĮæĶ¿":949,"è¡Įä¸ºèĥ½åĬĽ":950,"æ°ĳäºĭè¡Įä¸ºèĥ½åĬĽ":951,"ç¬¬ä¸ĢåįĥäºĮçĻ¾":952,"è¦ģçº¦":953,"è¦ģæ±Ĥ":954,"åĨħå®¹":955,"è¿Ĳäºº":956,"ç»§æī¿äºº":957,"å¦»":958,"å¿ħ":959,"å±Ĭæ»¡":960,"ªæĸ½":961,"åį±":962,"æĿ¡æ¬¾":963,"å§»":964,"æİªæĸ½":965,"éľĢ":966,"çº¦å®ļä¸įæĺİ":967,"æĮīçħ§çº¦å®ļ":968,"éĩĩåıĸ":969,"«ĺ":970,"ç¦":971,"é«ĺ":972,"å½±":973,"è®¼":974,"çī©æĿĥ":975,"æĮĩ":976,"å·¥ç¨ĭ":977,"å½¢å¼ı":978,"è¿ĩéĶĻ":979,"å©ļå§»":980,"è¡¨ç¤º":981,"å¼Ģåıĳ":982,"éªĮ":983,"å»ºè®¾çĶ¨åľ°ä½¿çĶ¨":984,"èĪ":985,"åıĤ":986,"ç¬¦":987,"æī§":988,"æĿ¡ä»¶":989,"åĵį":990,"è¯īè®¼":991,"çº¦å®ļä¸įæĺİç¡®":992,"ç¦»":993,"å½±åĵį":994,"å®ī":995,"åºı":996,"çĽ¸åºĶ":997,"æĥħåĨµ":998,"å±ŀäºİ":999,"éĽĨä½ĵ":1000,"å¤«å¦»":1001,"ç¬¦åĲĪ":1002,"åķ":1003,"èĬ":1004,"åıį":1005,"å½¹":1006,"çī©çļĦ":1007,"è½¦":1008,"éĻĲåĪ¶":1009,"å½ĵäºĭäººåı¦æľī":1010,"æľŁéĻĲåĨħ":1011,"éĿ¢":1012,"ä¹°åıĹäºº":1013,"åķĨ":1014,"èĬĤ":1015,"çł":1016,"ä»ĵ":1017,"æ³ķè§Ħ":1018,"åĮ»":1019,"ä¸»ä½ĵ":1020,"ä¸ĵåĪ©":1021,"å¿ħè¦ģ":1022,"ç¦»å©ļ":1023,"åĸ":1024,"æĿĥçĽĬ":1025,"å®ļä¹ī":1026,"äºĭåĬ¡":1027,"æı½":1028,"å·²":1029,"å»ºçŃĳçī©":1030,"æįŁå¤±çļĦ":1031,"åĬŀçĲĨ":1032,"åĸĦ":1033,"æ£":1034,"ç¥":1035,"è¯º":1036,"æĪĸèĢħåħ¶ä»ĸ":1037,"æī¿æı½":1038,"æī¿è¯º":1039,"æĪĲæŀľ":1040,"æ°ĳäºĭè´£ä»»":1041,"ä¾µæĿĥäºº":1042,"åīįæ¬¾":1043,"ç¼ĸ":1044,"è´Łæĭħ":1045,"åŁº":1046,"åĿ":1047,"ä»į":1048,"çī¹":1049,"æĭ¬":1050,"åı¯ä»¥è¯·æ±Ĥ":1051,"ä¼ĺ":1052,"èµłä¸İ":1053,"åĥ":1054,"å®¢":1055,"ä¿®":1056,"ä¾Ŀæį®":1057,"è´¨éĩı":1058,"åĮħæĭ¬":1059,"æ¯ģ":1060,"éħį":1061,"çķĻç½®":1062,"æī§è¡Į":1063,"æ£Ģ":1064,"åĥı":1065,"æĿĳ":1066,"æĬĹ":1067,"ä¸įå±¥è¡Į":1068,"åĽŀ":1069,"æĶ¾":1070,"æ³ķå¾ĭè§Ħå®ļ":1071,"åıĬåħ¶":1072,"æ²¡æľīçº¦å®ļæĪĸèĢħ":1073,"è¿Ŀçº¦è´£ä»»":1074,"è¶ħ":1075,"çĸĹ":1076,"å®ĮæĪĲ":1077,"èĪ¬":1078,"å·²ç»ı":1079,"ä»¥ä¸Ĭ":1080,"æľīæĿĥè¯·æ±Ĥ":1081,"èĩ´ä½¿":1082,"çģŃå¤±":1083,"éľĢè¦ģ":1084,"ä¼ĺåħĪ":1085,"æ¯ģæįŁ":1086,"æ²¡æľīçº¦å®ļæĪĸèĢħçº¦å®ļä¸įæĺİç¡®":1087,"å¤į":1088,"è§Ĩ":1089,"å±ħ":1090,"ä¹ĭä¸Ģ":1091,"ç®¡çĲĨäºº":1092,"åİŁåĪĻ":1093,"ä¹¦éĿ¢":1094,"éĻĦ":1095,"å¯Ĩ":1096,"åĩºè´¨":1097,"æľŁéĻĲå±Ĭæ»¡":1098,"æĢĿ":1099,"ä¹ĭæĹ¥":1100,"æľīåħ³è§Ħå®ļ":1101,"çº¦å®ļçļĦéĻ¤å¤ĸ":1102,"ä»£çĲĨäºº":1103,"èĩªçĦ¶äºº":1104,"æ´»åĬ¨":1105,"åĤ¨":1106,"å®ļä½ľ":1107,"æľīä¸ĭåĪĹ":1108,"æķħ":1109,"åı¯ä»¥åĲĳ":1110,"æıĲåŃĺ":1111,"ä¹°åįĸ":1112,"éħ¬":1113,"æĬ¥éħ¬":1114,"è¡ĮæĶ¿æ³ķè§Ħ":1115,"æ³ķå¾ĭåı¦æľī":1116,"è®¾æĸ½":1117,"è¡Įä¸ºäºº":1118,"è¯ģæĺİ":1119,"æľªç»ı":1120,"ä½ľåĩº":1121,"æľºåħ³":1122,"éĢłæĪĲä»ĸäºº":1123,"è¿Ŀåıį":1124,"æĥħå½¢ä¹ĭä¸Ģ":1125,"èĤĸ":1126,"å¢":1127,"è£":1128,"çļĦæ°ĳäºĭæ³ķå¾ĭè¡Įä¸º":1129,"å®£":1130,"è¿Ľ":1131,"éĢī":1132,"è´¢äº§çļĦ":1133,"æĦıæĢĿ":1134,"çĽ¸å¯¹":1135,"å¤ĦåĪĨ":1136,"è§Ĩä¸º":1137,"èĤĸåĥı":1138,"äººåľ¨":1139,"æľĢ":1140,"åĲĪæ³ķ":1141,"æī¿è¿Ĳäºº":1142,"æĭĴ":1143,"æĺĵ":1144,"æ°ĳäºĭä¸»ä½ĵ":1145,"çĶŁæķĪ":1146,"ä¹īåĬ¡çļĦ":1147,"æīĢæľīæĿĥ":1148,"æ¸ħåģ¿":1149,"ä¹ĭæĹ¥èµ·":1150,"æľīä¸ĭåĪĹæĥħå½¢ä¹ĭä¸Ģ":1151,"åıĮ":1152,"ä¹Ł":1153,"åº¦":1154,"åĩı":1155,"æĹ¶æķĪ":1156,"åĨľ":1157,"å§Ķåĳĺ":1158,"ä¿Ŀç®¡äºº":1159,"ä»½é¢Ŀ":1160,"åıĹæīĺäºº":1161,"åıĤçħ§":1162,"å®£åĳĬ":1163,"å§Ķåĳĺä¼ļ":1164,"äº²":1165,"åĬł":1166,"ç»´":1167,"åĬ¨è½¦":1168,"æľºåĬ¨è½¦":1169,"åĨ³å®ļ":1170,"è¡¥åģ¿":1171,"æ¶ĪçģŃ":1172,"ç´":1173,"è°":1174,"çļĦåĲĪåĲĮ":1175,"ç»ĵ":1176,"æĬļ":1177,"å¾ģ":1178,"åľ°å½¹":1179,"æŃ£":1180,"å±¥è¡ĮåĢºåĬ¡":1181,"æĿĥåĪ©äºº":1182,"æľªæĪĲå¹´":1183,"å®ŀçİ°":1184,"æĢ§è´¨":1185,"åį±éĻ©":1186,"æ®":1187,"ç¦ģ":1188,"çļĦè´¢äº§":1189,"ç»Ŀ":1190,"ä¸įç¬¦åĲĪ":1191,"æĸ°":1192,"åħ¶è§Ħå®ļ":1193,"ç¬¬äºĶçĻ¾ä¸Ģåįģ":1194,"ä¾Ŀçħ§åħ¶è§Ħå®ļ":1195,"åħ·æľī":1196,"å®īåħ¨":1197,"çĽ¸åºĶçļĦ":1198,"æĭĴç»Ŀ":1199,"åıĮæĸ¹":1200,"æĬļåħ»":1201,"æŁ¥":1202,"æĸĩ":1203,"æĹħ":1204,"å¼ĥ":1205,"éĹ¨":1206,"é¢Ĩ":1207,"è¿ŀå¸¦è´£ä»»":1208,"å»ºè®¾çĶ¨åľ°ä½¿çĶ¨æĿĥ":1209,"äºĴ":1210,"åĲĦ":1211,"åħį":1212,"è´¦":1213,"çĽ®":1214,"ç§°":1215,"åĩºèµĦ":1216,"å§ĵ":1217,"éĥ¨éĹ¨":1218,"æłĩçļĦçī©çļĦ":1219,"å»ºè®¾å·¥ç¨ĭ":1220,"éĩĩçĶ¨":1221,"æī¿åĮħç»ıèĲ¥":1222,"åĮ»çĸĹ":1223,"æĹħå®¢":1224,"¾ä¼ļ":1225,"åħ¥":1226,"æĪĸèĢħåĬ¨äº§":1227,"å¤ļ":1228,"åºĶæĶ¶":1229,"çºª":1230,"å¹³":1231,"åıĳåĮħ":1232,"æĬµæĬ¼æĿĥ":1233,"èĲ¥åĪ©":1234,"ç¤¾ä¼ļ":1235,"ä¸įåĬ¨äº§æĪĸèĢħåĬ¨äº§":1236,"è¯īè®¼æĹ¶æķĪ":1237,"è¶ħè¿ĩ":1238,"æĦıæĢĿè¡¨ç¤º":1239,"åıĤçħ§éĢĤçĶ¨":1240,"è´¦æ¬¾":1241,"åºĶæĶ¶è´¦æ¬¾":1242,"ä¸ĢèĪ¬":1243,"åºŃ":1244,"è¡Įçºª":1245,"ç§Łéĩĳ":1246,"çĶŁæ´»":1247,"èµĦæĸĻ":1248,"åįķä½į":1249,"æ£ĢéªĮ":1250,"å®ļä½ľäºº":1251,"éĢłæĪĲä»ĸäººæįŁå®³çļĦ":1252,"ªī":1253,"èªī":1254,"é£":1255,"çļĦäºº":1256,"çļĦæ³ķå¾ĭ":1257,"ä½ķ":1258,"ä¸įæī¿æĭħ":1259,"åľº":1260,"äº§çĶŁ":1261,"ç§ģ":1262,"ä¿ĿçĲĨ":1263,"ä»»ä½ķ":1264,"åıĹè®©":1265,"æĦ¿":1266,"æ³ķäººç»Ħç»ĩ":1267,"ä¹ĭéĹ´":1268,"ä¿Ŀè¯ģäºº":1269,"é¡º":1270,"éĿŀæ³ķäººç»Ħç»ĩ":1271,"è®¡ç®Ĺ":1272,"æİ¥åıĹ":1273,"è°ĥ":1274,"ç¬¬åįģ":1275,"åºĶå½ĵåıĬæĹ¶":1276,"æķĳ":1277,"åıĹåĪ°":1278,"å®¶åºŃ":1279,"åĪ°æľŁ":1280,"è§£éĻ¤åĲĪåĲĮ":1281,"ç½ĳ":1282,"éĩįå¤§":1283,"å½Ĵå±ŀ":1284,"è¿½åģ¿":1285,"èģĮè´£":1286,"äºĪä»¥":1287,"å½ĵäºĭäººåı¦æľīçº¦å®ļçļĦéĻ¤å¤ĸ":1288,"ä¾Ŀæį®æľ¬æ³ķ":1289,"çĽ¸å¯¹äºº":1290,"ç¦ģæŃ¢":1291,"é£İ":1292,"æĤ":1293,"ç©":1294,"çĤ":1295,"įåįĸ":1296,"çļĦæķĪåĬĽ":1297,"èĢĮ":1298,"æĭįåįĸ":1299,"ç§»":1300,"è½½":1301,"åĪĨåī":1302,"å½ĵäºĭäººçº¦å®ļ":1303,"é¢Ħ":1304,"äººåºĶå½ĵæĮīçħ§":1305,"åįıåķĨ":1306,"ä»İäºĭ":1307,"èĩªå·±çļĦ":1308,"æĮĩå®ļ":1309,"ä»ĵåĤ¨":1310,"ç¥¨":1311,"çĤ¹":1312,"åĪĨåī²":1313,"èį":1314,"ç¬¬äºĮ":1315,"æ³ķäººçļĦ":1316,"äºĭé¡¹":1317,"çī©æĿĥçļĦ":1318,"çĶ¨çĶµ":1319,"éĢģ":1320,"åľ°çĤ¹":1321,"è´¨æĿĥäºº":1322,"èģĶ":1323,"è´§çī©":1324,"åĲĪçĲĨæľŁéĻĲåĨħ":1325,"æµİ":1326,"çĽ®çļĦ":1327,"çļĦä¹īåĬ¡":1328,"ä»ĭ":1329,"ç»ľ":1330,"ç»ıæµİ":1331,"æłĩåĩĨ":1332,"èµĦæł¼":1333,"è¾¾":1334,"ä¾Ŀçħ§æ³ķå¾ĭ":1335,"ç¡®å®ļçļĦ":1336,"åĽ½å®¶æīĢæľī":1337,"åħ¨éĥ¨":1338,"åħ±æľīäºº":1339,"ä¸ªäººä¿¡æģ¯":1340,"æ°ĳäºĭè¡Įä¸ºèĥ½åĬĽäºº":1341,"æľīä¸ĭåĪĹæĥħå½¢ä¹ĭä¸ĢçļĦ":1342,"ç½ĳç»ľ":1343,"åĬ³":1344,"è´Ń":1345,"æĪ¿":1346,"åºĶå½ĵåľ¨":1347,"åºĶå½ĵä¾Ŀæ³ķ":1348,"æĶ¹":1349,"ä¿Ŀè¯ģè´£ä»»":1350,"ç«łç¨ĭ":1351,"ç»Ħç»ĩæĪĸèĢħ":1352,"åĲĪä¼Ļäºº":1353,"æķ°é¢Ŀ":1354,"çģŃå¤±çļĦ":1355,"ä¹¦éĿ¢å½¢å¼ı":1356,"é£İéĻ©":1357,"éĤ":1358,"ĲæĸĻ":1359,"äººèº«":1360,"æĿĲæĸĻ":1361,"å®ħ":1362,"æī¹":1363,"åĪ«":1364,"ä¸įåı¯":1365,"å¤Ł":1366,"æĭ©":1367,"åĲĪåĲĮæĺ¯":1368,"åĪ©çĶ¨":1369,"å¼ł":1370,"ä¼ģ":1371,"åĮº":1372,"ä¸»è¦ģ":1373,"ä¸»å¼ł":1374,"è´¨æĬ¼":1375,"è½¬ç§»":1376,"åĲİæŀľ":1377,"è¢«ä¾µæĿĥäºº":1378,"çĻ»è®°çļĦ":1379,"çĽ¸åħ³":1380,"ä¾ĽçĶµ":1381,"åİŁåĽł":1382,"åľŁåľ°æī¿åĮħç»ıèĲ¥":1383,"çłĶ":1384,"è¿Ľè¡Į":1385,"éĢīæĭ©":1386,"åĲĪæ³ķæĿĥçĽĬ":1387,"ä¹Łåı¯ä»¥":1388,"ç±":1389,"è¯Ĩ":1390,"çī©åĵģ":1391,"æķĻ":1392,"æ°ĳå§Ķåĳĺä¼ļ":1393,"å§ĭ":1394,"å½ĵäºĭäººä¸Ģæĸ¹":1395,"ä»£è¡¨":1396,"æĬĢæľ¯æĪĲæŀľ":1397,"åĲįç§°":1398,"ç§Łèµģçī©çļĦ":1399,"éļĲ":1400,"è¶³":1401,"æķħæĦı":1402,"æ³ķå¾ĭåı¦æľīè§Ħå®ļçļĦ":1403,"ç¬¬äºĶçĻ¾ä¸ĢåįģæĿ¡":1404,"å§ĵåĲį":1405,"ä¼ģä¸ļ":1406,"³æģ¯":1407,"èŀ":1408,"éĺ":1409,"ĺå¯Ĩ":1410,"ä¸§":1411,"æī¶":1412,"æľīæķĪ":1413,"è¯¢":1414,"æĪĸèĢħåºĶå½ĵ":1415,"åĲĪåĲĮæĪĲç«ĭ":1416,"ç§ĺå¯Ĩ":1417,"å¯Ħ":1418,"åģľ":1419,"åĢºåĬ¡çļĦ":1420,"æī¿æĭħä¾µæĿĥè´£ä»»":1421,"åŃ³æģ¯":1422,"ç¬¬ä¸īäººçļĦ":1423,"èĥ½å¤Ł":1424,"æĢģ":1425,"åħ³ç³»çļĦ":1426,"éļı":1427,"åºĶå½ĵæī¿æĭħä¾µæĿĥè´£ä»»":1428,"æ¸ħç®Ĺ":1429,"è¿ĩéĶĻçļĦ":1430,"åīįæ¬¾è§Ħå®ļçļĦ":1431,"ä»įä¸įèĥ½":1432,"æĶ¾å¼ĥ":1433,"å±ħä½ı":1434,"è¡Įçºªäºº":1435,"åıĹè®©äºº":1436,"èŀį":1437,"çĬ":1438,"çľ":1439,"çĿ":1440,"éķ":1441,"æĪ·":1442,"ä¸Ģèĩ´":1443,"éĻħ":1444,"æįĲ":1445,"åĢºåĬ¡äººçļĦ":1446,"åĬ¨çī©":1447,"æĮīä»½":1448,"éģĹå¤±":1449,"æĬµæĬ¼æĿĥäºº":1450,"ä»·æł¼":1451,"èĮĥåĽ´åĨħ":1452,"çł´":1453,"åĸĦæĦı":1454,"æ²¡æľīçº¦å®ļæĪĸèĢħçº¦å®ļä¸įæĺİç¡®çļĦ":1455,"è£ģ":1456,"åĨľæĿĳ":1457,"åľ°å½¹æĿĥ":1458,"ç»Ħç»ĩæĪĸèĢħä¸ªäºº":1459,"ç±»":1460,"èŀįèµĦ":1461,"¢å¤į":1462,"²è£ģ":1463,"äººåĳĺ":1464,"æĿŁ":1465,"ä»²è£ģ":1466,"æīĭ":1467,"è¯ķ":1468,"çĶ¨çĽĬ":1469,"ç§į":1470,"åĪ©æģ¯":1471,"åĴĮåħ¶ä»ĸ":1472,"å¼Ĥ":1473,"æī¿æĭħèµĶåģ¿è´£ä»»":1474,"çŃ¾":1475,"å¾ĹçļĦ":1476,"è¡Įä¸ºçļĦ":1477,"åĪĨéħį":1478,"çĶŁäº§":1479,"æıĲåīį":1480,"è´¨æĿĥ":1481,"æĢ¥":1482,"ä»£ç®¡":1483,"çĻ»è®°æľºæŀĦ":1484,"éģĹèµł":1485,"èµĶåģ¿æįŁå¤±":1486,"ç§ŁèµģåĲĪåĲĮ":1487,"ä¸Ńä»ĭ":1488,"æģ¢å¤į":1489,"çļĦè§Ħå®ļä»įä¸įèĥ½":1490,"æĬ¥åĳĬ":1491,"èĤ²":1492,"è¿½è®¤":1493,"éĽĨä½ĵæīĢæľī":1494,"å¿ħè¦ģçļĦ":1495,"æī¿æı½äºº":1496,"ç»´ä¿®":1497,"éĩĩçĶ¨ä¹¦éĿ¢å½¢å¼ı":1498,"é¡ºåºı":1499,"ä¾Ŀæį®æľ¬æ³ķç¬¬äºĶçĻ¾ä¸ĢåįģæĿ¡":1500,"ç©¶":1501,"è´Ńä¹°":1502,"çłĶç©¶":1503,"å¯ĦåŃĺ":1504,"ä¾Ŀæį®æľ¬æ³ķç¬¬äºĶçĻ¾ä¸ĢåįģæĿ¡çļĦè§Ħå®ļä»įä¸įèĥ½":1505,"ºĲ":1506,"æºĲ":1507,"ä¸¤":1508,"çļĦæľīåħ³è§Ħå®ļ":1509,"äººæľª":1510,"äººæł¼":1511,"ä¹ł":1512,"ä¸Ģå¹¶":1513,"æĬ¢":1514,"å¤ĩ":1515,"äºĭçĶ±":1516,"è§ģ":1517,"çĽ´":1518,"åıĹæ³ķå¾ĭ":1519,"åĢºåĬ¡æĪĸèĢħ":1520,"æĮģ":1521,"æ°ĳäºĭæĿĥåĪ©":1522,"æıĲåĩº":1523,"å°½":1524,"ä½Ĩæĺ¯å½ĵäºĭäººåı¦æľīçº¦å®ļçļĦéĻ¤å¤ĸ":1525,"äº¤æĺĵ":1526,"éĢłæĪĲçļĦ":1527,"æľ¬ç¼ĸ":1528,"äº¤ä»ĺçļĦ":1529,"éļ¾":1530,"è®¢ç«ĭåĲĪåĲĮ":1531,"åºĶå½ĵæī¿æĭħèµĶåģ¿è´£ä»»":1532,"çŁ¥éģĵæĪĸèĢħåºĶå½ĵ":1533,"åĩºè´¨äºº":1534,"æľĢé«ĺ":1535,"äº§çĶŁçļĦ":1536,"ä»»ä½ķç»Ħç»ĩæĪĸèĢħä¸ªäºº":1537,"æĤ£":1538,"æī¶åħ»":1539,"çľŁ":1540,"çłĶç©¶å¼Ģåıĳ":1541,"çŁ¥éģĵæĪĸèĢħåºĶå½ĵçŁ¥éģĵ":1542,"éĢĶ":1543,"å±ĭ":1544,"åĪ©å®³":1545,"æķ´":1546,"æĪĲåĳĺ":1547,"æĹ¶çļĦ":1548,"æĸ¹æ³ķ":1549,"æī¿æĭħæ°ĳäºĭè´£ä»»":1550,"æī¿æĭħè¿ŀå¸¦è´£ä»»":1551,"åľ°çļĦ":1552,"è®¾è®¡":1553,"å±¥è¡ĮçļĦ":1554,"æĶ¶çĽĬ":1555,"æıĲåıĸ":1556,"æĸ½å·¥":1557,"å®ŀéĻħ":1558,"æ³ķäººç«łç¨ĭ":1559,"å§ĶæīĺäºĭåĬ¡":1560,"ç»§ç»Ń":1561,"æįŁå®³èµĶåģ¿":1562,"æľīæĿĥåĲĳ":1563,"éĢĤå½ĵ":1564,"è¾©":1565,"åĢºæĿĥäººçļĦ":1566,"ç¨ĭåºı":1567,"å¦¨":1568,"çİ¯":1569,"ç¼º":1570,"æµģ":1571,"ä»ĵåįķ":1572,"æĬĹè¾©":1573,"å¢ĥ":1574,"åĮ»çĸĹæľºæŀĦ":1575,"æķĻèĤ²":1576,"ä¾Ŀæį®æľ¬æ³ķç¬¬äºĶçĻ¾ä¸ĢåįģæĿ¡çļĦè§Ħå®ļä»įä¸įèĥ½ç¡®å®ļçļĦ":1577,"¨è¯¢":1578,"å²":1579,"åĭ":1580,"åŀ":1581,"çĭ":1582,"çĳ":1583,"ĠåĲĪ":1584,"ķçĸ":1585,"ç¬¬äºĮåįģ":1586,"åº·":1587,"åĲĮä¸Ģ":1588,"åĢ¼":1589,"åºĶå½ĵæĮīçħ§":1590,"åĢºæĿĥçļĦ":1591,"åĴ¨è¯¢":1592,"å¼º":1593,"æī¿æĭħä¿Ŀè¯ģè´£ä»»":1594,"åŃ¦":1595,"çĶŁæĢģ":1596,"å°ĳ":1597,"è¯·æ±ĤæĿĥ":1598,"å»¶":1599,"æİ¨":1600,"æİĴ":1601,"æĬĢæľ¯ç§ĺå¯Ĩ":1602,"æĬµæĬ¼è´¢äº§":1603,"ä¿Ŀç®¡çī©":1604,"åĢºæĿĥåĢºåĬ¡":1605,"çĽĳæĬ¤äººçļĦ":1606,"ä¸įåĬ¨äº§çĻ»è®°":1607,"åıĳçĶŁæķĪåĬĽ":1608,"ç»ĻäºĪ":1609,"åĤ¬":1610,"çī¹å®ļ":1611,"å¢ŀ":1612,"æŃ£å½ĵ":1613,"æĪ¿å±ĭ":1614,"éĤ»":1615,"çĬ¶":1616,"åıĹæ³ķå¾ĭä¿ĿæĬ¤":1617,"æĤ£èĢħ":1618,"çİ¯å¢ĥ":1619,"çĭ¬":1620,"çĳķçĸ":1621,"çĳķçĸµ":1622,"¥åº·":1623,"·¯":1624,"¾æľŁ":1625,"åĦ":1626,"æŁ":1627,"èİ":1628,"è·¯":1629,"ĠåĲĮ":1630,"æĬķ":1631,"æĬĺ":1632,"ä¾ĭ":1633,"åºĶå½ĵåĲĳ":1634,"åĲĪåĲĮå®ļä¹ī":1635,"éĢ¾æľŁ":1636,"åģ¶":1637,"åģ¥åº·":1638,"åıĹå®³":1639,"æĶ¶è´§":1640,"äº¤éĢļ":1641,"çĽ¸éĤ»":1642,"ä¹ĭåīį":1643,"èĲ½":1644,"åı¦ä¸Ģæĸ¹":1645,"è¿ĩå¤±":1646,"çĽĳçĿ":1647,"å¸¸":1648,"åıĺåįĸ":1649,"æĭħä¿ĿçļĦ":1650,"åĲįèªī":1651,"å¼Ģå§ĭ":1652,"çī©ä¸ļæľįåĬ¡äºº":1653,"æŃ»äº¡çļĦ":1654,"ç´§":1655,"å¾ģæĶ¶":1656,"èĲ¥åĪ©æ³ķäºº":1657,"è°ĥæķ´":1658,"éĢģåħ»":1659,"åĬ³åĬ¡":1660,"éĺ²":1661,"å¼Ĥè®®":1662,"çĽ´æİ¥":1663,"æľĢé«ĺé¢Ŀ":1664,"åĦ¿":1665,"èİ·":1666,"çĽĳçĿ£":1667,"å£":1668,"èĻ":1669,"ä¸¥":1670,"ä¸Ķ":1671,"å®ļéĩĳ":1672,"æľīè¿ĩéĶĻçļĦ":1673,"åĪĴ":1674,"æ³¨":1675,"ä¸įå½±åĵį":1676,"äºĭæķħ":1677,"äº§åĵģ":1678,"æ°´":1679,"åıĹçĽĬ":1680,"æī¿æĭħè¿Ŀçº¦è´£ä»»":1681,"å®³è´£ä»»":1682,"æīĺè¿Ĳäºº":1683,"æŃ¤":1684,"å½ĵäºĭäººçļĦ":1685,"æĶ¶åıĸ":1686,"æıĲèµ·":1687,"è¢«ç»§æī¿äºº":1688,"çĽ¸åĲĮ":1689,"æĥ¯":1690,"æ¯Ķ":1691,"æĶ¯ä»ĺæĬ¥éħ¬":1692,"äººåºĶå½ĵæĮīçħ§çº¦å®ļ":1693,"ä¸ŃæŃ¢":1694,"åŃĺè´§":1695,"åħ¬åħ±":1696,"èĩ´å®³è´£ä»»":1697,"éļľ":1698,"éªĮæĶ¶":1699,"å¤«å¦»åħ±åĲĮ":1700,"åīįæ¬¾è§Ħå®ļ":1701,"å¹³çŃī":1702,"ä»ĵåĤ¨çī©":1703,"èģĶè¿Ĳ":1704,"è´¨æĬ¼è´¢äº§":1705,"ä¸§å¤±":1706,"ä¹łæĥ¯":1707,"çľŁå®ŀ":1708,"åĪ©å®³åħ³ç³»":1709,"åĭĺ":1710,"åĤ¬åĳĬ":1711,"ç´§æĢ¥":1712,"¸ª":1713,"è¸ª":1714,"Ġå®ļ":1715,"äºī":1716,"çļĦæĸ¹å¼ı":1717,"çļĦæĹ¶éĹ´":1718,"çļĦä¸įåĬ¨äº§æĪĸèĢħåĬ¨äº§":1719,"ä½Ļ":1720,"ä¸Ģå¹´":1721,"æī¿è¿Ĳ":1722,"æĸŃ":1723,"åºĶå½ĵéĩĩçĶ¨ä¹¦éĿ¢å½¢å¼ı":1724,"å¯Ł":1725,"åĴĮæĬĢæľ¯":1726,"åĴĮåĽ½":1727,"åıĹåģ¿":1728,"åĨį":1729,"æī¿æĭħè´£ä»»":1730,"æ±¡":1731,"åľ¨åĲĪçĲĨæľŁéĻĲåĨħ":1732,"å½ĵäºĭäººåı¯ä»¥":1733,"è®°è½½":1734,"ä»£ä½į":1735,"æłĩçļĦ":1736,"è¢«ä»£çĲĨäºº":1737,"å¼ıèģĶè¿Ĳ":1738,"çŁ¥è¯Ĩ":1739,"ä¸įå¾Ĺå¯¹":1740,"æĬµæĬ¼æĿĥçļĦ":1741,"èµĦæºĲ":1742,"ä»·åĢ¼":1743,"åĪ°è¾¾":1744,"åĢºæĿĥè½¬è®©":1745,"ä¾Ŀçħ§æ³ķå¾ĭè§Ħå®ļ":1746,"åħ¬å¼Ģ":1747,"æĹ¥æľŁ":1748,"æĴ¤éĶĢæĿĥ":1749,"å®ŀæĸ½çļĦæ°ĳäºĭæ³ķå¾ĭè¡Įä¸º":1750,"ä»¥åıĬåħ¶ä»ĸ":1751,"å·¥ä½ľæĪĲæŀľ":1752,"ä½ıæīĢ":1753,"åĿı":1754,"å®ĮæĪĲçļĦ":1755,"æ³ķå¾ĭåı¦æľīè§Ħå®ļ":1756,"è£ħ":1757,"äº²å±ŀ":1758,"åĲĦèĩª":1759,"å¤ļå¼ıèģĶè¿Ĳ":1760,"åıĳåĮħäºº":1761,"ä¸ĢèĪ¬åĮħæĭ¬":1762,"æįĲåĬ©":1763,"äº¤éĢļäºĭæķħ":1764,"åĭĺå¯Ł":1765,"¥åĸĦ":1766,"©ä½Ļ":1767,"Ġè§Ħ":1768,"æľĪ":1769,"åįİ":1770,"è´·":1771,"åĪ¤":1772,"åĲĪä½ľ":1773,"åºľ":1774,"ä¸įæĪĲ":1775,"çĶ¨éĢĶ":1776,"ä¿ĿéĻ©":1777,"ä¿Ŀå¯Ĩ":1778,"ä¿Ŀéļľ":1779,"æį¢":1780,"æ°ĳæĶ¿":1781,"åĴĮä¹īåĬ¡":1782,"æ¬¡":1783,"ä»ĸäººçļĦ":1784,"éģµ":1785,"æĿĥåĪ©çļĦ":1786,"å½ĵäºĭäººå¯¹":1787,"å¤±è¸ª":1788,"è´¢äº§ä»£ç®¡":1789,"åĲİçļĦ":1790,"åī©ä½Ļ":1791,"è¢«æĴ¤éĶĢ":1792,"æľ¬ç«ł":1793,"å¸Ĥ":1794,"åĲĪåĲĮçļĦåĨħå®¹":1795,"å±ŀè®¾æĸ½":1796,"éĢĤçĶ¨æľ¬æ³ķ":1797,"å¦¥åĸĦ":1798,"åĳĬçŁ¥":1799,"äººåı¯ä»¥è¯·æ±Ĥ":1800,"åįıåĬ©":1801,"åĲįä¹ī":1802,"ç¬¬ä¸ĢåįĥéĽ¶ä¹Ŀåįģ":1803,"è´Łè´£":1804,"è¿Ŀçº¦éĩĳ":1805,"éĿŀæ³ķ":1806,"å±ŀäºİåĽ½å®¶æīĢæľī":1807,"åĿĩ":1808,"çī¹æ®":1809,"åıĬåħ¶éĻĦ":1810,"ä¼ĺåħĪåıĹåģ¿":1811,"åħįéĻ¤":1812,"éĩįå¤§è¿ĩå¤±":1813,"éļıæĹ¶":1814,"æīĭç»Ń":1815,"ä»»ä½ķç»Ħç»ĩæĪĸèĢħä¸ªäººä¸įå¾Ĺ":1816,"å¼ºåĪ¶":1817,"æĬĺä»·":1818,"åıĹå®³äºº":1819,"å£°":1820,"æ¯Ķä¾ĭ":1821,"æ°ĳæĶ¿éĥ¨éĹ¨":1822,"çī¹æ®Ĭ":1823,"åıĬåħ¶éĻĦå±ŀè®¾æĸ½":1824,"åĶ":1825,"èī":1826,"èĳ":1827,"ĠæĿĥ":1828,"çļĦæĥħå½¢":1829,"äººä¸º":1830,"åħħ":1831,"è¯¯":1832,"åĲĮæĹ¶":1833,"è¿ĳ":1834,"çº¦æĿŁ":1835,"å¯¼":1836,"åĩŃ":1837,"åıĹé¢Ĩ":1838,"æī¿æĭħçĽ¸åºĶçļĦ":1839,"è½»":1840,"æ°ĳäºĭæ´»åĬ¨":1841,"è¯ģæį®":1842,"å°Ĭ":1843,"åıĳçİ°":1844,"åħ»åŃĲå¥³":1845,"æ³ķäººèµĦæł¼":1846,"åħ±åĴĮåĽ½":1847,"è¢«çĽĳæĬ¤äºº":1848,"ç¡®è®¤":1849,"æĶ¯ä»ĺä»·æ¬¾":1850,"ä¸Ńåįİ":1851,"åŃĺåľ¨":1852,"åŃĺç»Ń":1853,"æ²¡æľīè§Ħå®ļçļĦ":1854,"åĽĽåįģä¸īæĿ¡":1855,"æĴ¤åĽŀ":1856,"äººæ°ĳåħ±åĴĮåĽ½":1857,"æ¶ī":1858,"æĶ¶åħ»åħ³ç³»":1859,"è´¹çĶ¨çļĦ":1860,"èĩªçĦ¶äººçļĦ":1861,"æķ°éĩı":1862,"æ³ķå®ļä»£è¡¨":1863,"å°±è¯¥":1864,"æ¶ĪéĻ¤":1865,"è¦ģçº¦äºº":1866,"é«ĺåº¦":1867,"éħįåģ¶":1868,"ä»¥ä¸ĬçļĦ":1869,"åĩıè½»":1870,"ç»´æĬ¤":1871,"ç»ĵå©ļ":1872,"é¢Ĩåıĸ":1873,"äººåºĶå½ĵæĮīçħ§çº¦å®ļçļĦ":1874,"æķħæĦıæĪĸèĢħ":1875,"éģĹå¤±çī©":1876,"æŁĵ":1877,"æıĲèµ·è¯īè®¼":1878,"æ±¡æŁĵ":1879,"ä¸Ńåįİäººæ°ĳåħ±åĴĮåĽ½":1880,"¢į":1881,"¨å²":1882,"´æĺİ":1883,"æĲ":1884,"ç¢į":1885,"é¥":1886,"Ġä¸Ģ":1887,"ĠèĪ¬":1888,"çļĦæĦıæĢĿè¡¨ç¤º":1889,"åıĪ":1890,"è¯´æĺİ":1891,"åĬ¡äººåĳĺ":1892,"éĻ·":1893,"ä¸įåıĹ":1894,"ä¸įè¶³":1895,"åĲĪåĲĮè§£éĻ¤":1896,"åĲĪåĲĮç»ĪæŃ¢":1897,"å±ķ":1898,"çĲĨçĶ±":1899,"çº¦å®ļå¤ĸ":1900,"ç¬¬ä¸ĢèĬĤ":1901,"æīĺè¿Ĳ":1902,"å½ĵäºĭäººçº¦å®ļçļĦ":1903,"çŃīæĸ¹å¼ı":1904,"èĥĮ":1905,"è´¨æĿĥçļĦ":1906,"åĳ¨å²":1907,"è½¬å§Ķæīĺ":1908,"è¢«å®£åĳĬ":1909,"è¢«çĽĳæĬ¤äººçļĦ":1910,"éĢļè¿ĩ":1911,"åĢºåĬ¡äººä¸įå±¥è¡Į":1912,"æľīåħ³çļĦ":1913,"åĽĽåįģä¸ĢæĿ¡":1914,"è®¢ç«ĭåĲĪåĲĮçļĦ":1915,"è®¸åı¯äºº":1916,"å®Įåħ¨":1917,"åĮ»åĬ¡äººåĳĺ":1918,"çķĻç½®æĿĥ":1919,"æĿĳæ°ĳå§Ķåĳĺä¼ļ":1920,"è¡ĮæĶ¿æ³ķè§ĦçļĦè§Ħå®ļ":1921,"åĩıå°ĳ":1922,"ä¸įç¬¦åĲĪçº¦å®ļçļĦ":1923,"åĩºèµĦäºº":1924,"åºĶå½ĵåıĬæĹ¶éĢļçŁ¥":1925,"åľŁåľ°æī¿åĮħç»ıèĲ¥æĿĥ":1926,"çł´åĿı":1927,"èŀįèµĦç§ŁèµģåĲĪåĲĮ":1928,"è¯ķçĶ¨":1929,"ä¸¤ä¸ª":1930,"å°½åĪ°":1931,"éļ¾ä»¥":1932,"çŁ¥è¯Ĩäº§":1933,"è¿ĳäº²å±ŀ":1934,"é«ĺåº¦åį±éĻ©":1935,"åĳ¨å²ģ":1936,"£èªī":1937,"²¾":1938,"²åħ»":1939,"ç²¾":1940,"çļĦè¡Įä¸º":1941,"äººä½ĵ":1942,"çĶ·":1943,"æĪĸèĢħä»²è£ģ":1944,"çī©æĿĥäºº":1945,"æĭħä»»":1946,"åĪ©äºİ":1947,"è´£ä»»æī¿æĭħ":1948,"èĩªæĦ¿":1949,"éģ¿":1950,"çĶŁçĪ¶æ¯į":1951,"æīĢå¾ĹçļĦ":1952,"åĽłæŃ¤":1953,"æĮīçħ§åħ¶":1954,"ä½ľä¸º":1955,"å¼ıæĿ¡æ¬¾":1956,"æĹłæĿĥ":1957,"æĬĢæľ¯åĴ¨è¯¢":1958,"æĶ¯ä»ĺçļĦ":1959,"æĶ¯ä»ĺç§Łéĩĳ":1960,"ç§ŁèµģæľŁéĻĲå±Ĭæ»¡":1961,"äººåºĶå½ĵåľ¨":1962,"åĢºåĬ¡äººå¯¹":1963,"è¿ĩç¨ĭ":1964,"åĽĽåįģäºĮæĿ¡":1965,"åĽĽåįģäºĶæĿ¡":1966,"åı¦æľīçº¦å®ļçļĦéĻ¤å¤ĸ":1967,"ä¸īåįģä¸ĥæĿ¡":1968,"æł¼å¼ıæĿ¡æ¬¾":1969,"åŃĲå¥³çļĦ":1970,"æıĲä¾ĽçļĦ":1971,"æī¿åĮħäºº":1972,"å¤ĦçĲĨå§ĶæīĺäºĭåĬ¡":1973,"åŁŁ":1974,"æ³ķå®ļä»£çĲĨäºº":1975,"è¡¥æķĳ":1976,"ä½ıå®ħ":1977,"æĮĩç¤º":1978,"å©ļå§»åħ³ç³»":1979,"å¼ĢåıĳåĲĪåĲĮçļĦ":1980,"å½¹åľ°":1981,"ç¥ŀ":1982,"ä¼ĺåħĪè´Ńä¹°":1983,"ç´¢":1984,"èĲ¥åĪ©æ³ķäººçļĦ":1985,"è¯īè®¼æĹ¶æķĪæľŁéĹ´":1986,"çļĦæ³ķå¾ĭåĲİæŀľ":1987,"èį£èªī":1988,"ç»ıæµİç»Ħç»ĩ":1989,"å®ħåŁº":1990,"éļĲç§ģ":1991,"éķ¿":1992,"å¯ĦåŃĺäºº":1993,"è§ģè¯ģ":1994,"äº¤æĺĵä¹łæĥ¯":1995,"æİ¨å®ļ":1996,"ä¸įå¾Ĺå¯¹æĬĹ":1997,"æ³ķå¾ĭåı¦æľīè§Ħå®ļæĪĸèĢħ":1998,"çº¦æĿŁåĬĽ":1999}